/* Copyright 2018 The TensorFlow Authors. All Rights Reserved.

Licensed under the Apache License, Version 2.0 (the "License");
you may not use this file except in compliance with the License.
You may obtain a copy of the License at

    http://www.apache.org/licenses/LICENSE-2.0

Unless required by applicable law or agreed to in writing, software
distributed under the License is distributed on an "AS IS" BASIS,
WITHOUT WARRANTIES OR CONDITIONS OF ANY KIND, either express or implied.
See the License for the specific language governing permissions and
limitations under the License.
==============================================================================*/

// Automatically created from a TensorFlow Lite flatbuffer using the command:
// xxd -i tiny_conv.tflite > tiny_conv_simple_features_model_data.cc
// See the README for a full description of the creation process.

#include "tiny_conv_micro_features_model_data.h"

// We need to keep the data array aligned on some architectures.
#ifdef __has_attribute
#define HAVE_ATTRIBUTE(x) __has_attribute(x)
#else
#define HAVE_ATTRIBUTE(x) 0
#endif
#if HAVE_ATTRIBUTE(aligned) || (defined(__GNUC__) && !defined(__clang__))
#define DATA_ALIGN_ATTRIBUTE __attribute__((aligned(4)))
#else
#define DATA_ALIGN_ATTRIBUTE
#endif

const unsigned char
    g_tiny_conv_micro_features_model_data[] DATA_ALIGN_ATTRIBUTE = {
        0x1c, 0x00, 0x00, 0x00, 0x54, 0x46, 0x4c, 0x33, 0x00, 0x00, 0x12, 0x00,
        0x1c, 0x00, 0x04, 0x00, 0x08, 0x00, 0x0c, 0x00, 0x10, 0x00, 0x14, 0x00,
        0x00, 0x00, 0x18, 0x00, 0x12, 0x00, 0x00, 0x00, 0x03, 0x00, 0x00, 0x00,
        0x9c, 0x25, 0x00, 0x00, 0x10, 0x00, 0x00, 0x00, 0x1c, 0x00, 0x00, 0x00,
        0x2c, 0x00, 0x00, 0x00, 0x0c, 0x00, 0x00, 0x00, 0x01, 0x00, 0x00, 0x00,
        0xc0, 0x00, 0x00, 0x00, 0x01, 0x00, 0x00, 0x00, 0x94, 0x00, 0x00, 0x00,
        0x0f, 0x00, 0x00, 0x00, 0x54, 0x4f, 0x43, 0x4f, 0x20, 0x43, 0x6f, 0x6e,
        0x76, 0x65, 0x72, 0x74, 0x65, 0x64, 0x2e, 0x00, 0x0a, 0x00, 0x00, 0x00,
        0x60, 0x00, 0x00, 0x00, 0x54, 0x00, 0x00, 0x00, 0x48, 0x00, 0x00, 0x00,
        0x3c, 0x00, 0x00, 0x00, 0x34, 0x00, 0x00, 0x00, 0x2c, 0x00, 0x00, 0x00,
        0x20, 0x00, 0x00, 0x00, 0x18, 0x00, 0x00, 0x00, 0x10, 0x00, 0x00, 0x00,
        0x04, 0x00, 0x00, 0x00, 0x8e, 0xdb, 0xff, 0xff, 0x38, 0x00, 0x00, 0x00,
        0x3c, 0xdb, 0xff, 0xff, 0x40, 0xdb, 0xff, 0xff, 0x9e, 0xdb, 0xff, 0xff,
        0xe0, 0x01, 0x00, 0x00, 0x4c, 0xdb, 0xff, 0xff, 0x50, 0xdb, 0xff, 0xff,
        0xae, 0xdb, 0xff, 0xff, 0x50, 0x03, 0x00, 0x00, 0xb6, 0xdb, 0xff, 0xff,
        0x3c, 0x04, 0x00, 0x00, 0xbe, 0xdb, 0xff, 0xff, 0xe8, 0x23, 0x00, 0x00,
        0x6c, 0xdb, 0xff, 0xff, 0x05, 0x00, 0x00, 0x00, 0x31, 0x2e, 0x35, 0x2e,
        0x30, 0x00, 0x00, 0x00, 0x08, 0x00, 0x0c, 0x00, 0x04, 0x00, 0x08, 0x00,
        0x08, 0x00, 0x00, 0x00, 0x08, 0x00, 0x00, 0x00, 0x09, 0x00, 0x00, 0x00,
        0x13, 0x00, 0x00, 0x00, 0x6d, 0x69, 0x6e, 0x5f, 0x72, 0x75, 0x6e, 0x74,
        0x69, 0x6d, 0x65, 0x5f, 0x76, 0x65, 0x72, 0x73, 0x69, 0x6f, 0x6e, 0x00,
        0x50, 0xfc, 0xff, 0xff, 0x20, 0x00, 0x00, 0x00, 0x14, 0x00, 0x00, 0x00,
        0x08, 0x00, 0x00, 0x00, 0xac, 0x23, 0x00, 0x00, 0x01, 0x00, 0x00, 0x00,
        0x05, 0x00, 0x00, 0x00, 0x01, 0x00, 0x00, 0x00, 0x03, 0x00, 0x00, 0x00,
        0x08, 0x00, 0x00, 0x00, 0x04, 0x01, 0x00, 0x00, 0x1c, 0x23, 0x00, 0x00,
        0x8c, 0x00, 0x00, 0x00, 0x14, 0x00, 0x00, 0x00, 0xcc, 0x01, 0x00, 0x00,
        0x58, 0x01, 0x00, 0x00, 0x2c, 0x02, 0x00, 0x00, 0x10, 0x03, 0x00, 0x00,
        0x0e, 0xdd, 0xff, 0xff, 0x00, 0x00, 0x00, 0x03, 0x10, 0x00, 0x00, 0x00,
        0x08, 0x00, 0x00, 0x00, 0x1c, 0x00, 0x00, 0x00, 0x28, 0x00, 0x00, 0x00,
        0x04, 0x00, 0x00, 0x00, 0x01, 0x00, 0x00, 0x00, 0x31, 0x00, 0x00, 0x00,
        0x28, 0x00, 0x00, 0x00, 0x01, 0x00, 0x00, 0x00, 0x09, 0x00, 0x00, 0x00,
        0x52, 0x65, 0x73, 0x68, 0x61, 0x70, 0x65, 0x5f, 0x32, 0x00, 0x00, 0x00,
        0xd4, 0xfc, 0xff, 0xff, 0x2c, 0x00, 0x00, 0x00, 0x20, 0x00, 0x00, 0x00,
        0x14, 0x00, 0x00, 0x00, 0x04, 0x00, 0x00, 0x00, 0x01, 0x00, 0x00, 0x00,
        0x00, 0x00, 0x00, 0x00, 0x00, 0x00, 0x00, 0x00, 0x01, 0x00, 0x00, 0x00,
        0xc6, 0xd0, 0xd0, 0x3d, 0x01, 0x00, 0x00, 0x00, 0xf5, 0xff, 0xcf, 0x41,
        0x01, 0x00, 0x00, 0x00, 0x00, 0x00, 0x00, 0x00, 0x82, 0xdd, 0xff, 0xff,
        0x00, 0x00, 0x00, 0x03, 0x10, 0x00, 0x00, 0x00, 0x07, 0x00, 0x00, 0x00,
        0x1c, 0x00, 0x00, 0x00, 0x24, 0x00, 0x00, 0x00, 0x04, 0x00, 0x00, 0x00,
        0x01, 0x00, 0x00, 0x00, 0x19, 0x00, 0x00, 0x00, 0x14, 0x00, 0x00, 0x00,
        0x04, 0x00, 0x00, 0x00, 0x04, 0x00, 0x00, 0x00, 0x52, 0x65, 0x6c, 0x75,
        0x00, 0x00, 0x00, 0x00, 0x44, 0xfd, 0xff, 0xff, 0x2c, 0x00, 0x00, 0x00,
        0x20, 0x00, 0x00, 0x00, 0x14, 0x00, 0x00, 0x00, 0x04, 0x00, 0x00, 0x00,
        0x01, 0x00, 0x00, 0x00, 0x00, 0x00, 0x00, 0x00, 0x00, 0x00, 0x00, 0x00,
        0x01, 0x00, 0x00, 0x00, 0x0a, 0x91, 0x44, 0x3d, 0x01, 0x00, 0x00, 0x00,
        0x79, 0xcc, 0x43, 0x41, 0x01, 0x00, 0x00, 0x00, 0x00, 0x00, 0x00, 0x00,
        0xf2, 0xdd, 0xff, 0xff, 0x00, 0x00, 0x00, 0x02, 0x10, 0x00, 0x00, 0x00,
        0x06, 0x00, 0x00, 0x00, 0x10, 0x00, 0x00, 0x00, 0x1c, 0x00, 0x00, 0x00,
        0x01, 0x00, 0x00, 0x00, 0x04, 0x00, 0x00, 0x00, 0x0b, 0x00, 0x00, 0x00,
        0x43, 0x6f, 0x6e, 0x76, 0x32, 0x44, 0x5f, 0x62, 0x69, 0x61, 0x73, 0x00,
        0xe4, 0xdd, 0xff, 0xff, 0x18, 0x00, 0x00, 0x00, 0x04, 0x00, 0x00, 0x00,
        0x01, 0x00, 0x00, 0x00, 0x00, 0x00, 0x00, 0x00, 0x00, 0x00, 0x00, 0x00,
        0x00, 0x00, 0x00, 0x00, 0x01, 0x00, 0x00, 0x00, 0xa2, 0xf9, 0xe4, 0x38,
        0x10, 0x00, 0x00, 0x00, 0x00, 0x00, 0x00, 0x00, 0xb7, 0xff, 0xff, 0xff,
        0xb8, 0xfb, 0xff, 0xff, 0xc9, 0xfc, 0xff, 0xff, 0x5a, 0xde, 0xff, 0xff,
        0x00, 0x00, 0x00, 0x03, 0x10, 0x00, 0x00, 0x00, 0x05, 0x00, 0x00, 0x00,
        0x14, 0x00, 0x00, 0x00, 0x24, 0x00, 0x00, 0x00, 0x02, 0x00, 0x00, 0x00,
        0x01, 0x00, 0x00, 0x00, 0x04, 0x00, 0x00, 0x00, 0x0e, 0x00, 0x00, 0x00,
        0x6c, 0x61, 0x62, 0x65, 0x6c, 0x73, 0x5f, 0x73, 0x6f, 0x66, 0x74, 0x6d,
        0x61, 0x78, 0x00, 0x00, 0x1c, 0xfe, 0xff, 0xff, 0x2c, 0x00, 0x00, 0x00,
        0x20, 0x00, 0x00, 0x00, 0x14, 0x00, 0x00, 0x00, 0x04, 0x00, 0x00, 0x00,
        0x01, 0x00, 0x00, 0x00, 0x00, 0x00, 0x00, 0x00, 0x00, 0x00, 0x00, 0x00,
        0x01, 0x00, 0x00, 0x00, 0x00, 0x00, 0x80, 0x3b, 0x01, 0x00, 0x00, 0x00,
        0x00, 0x00, 0x7f, 0x3f, 0x01, 0x00, 0x00, 0x00, 0x00, 0x00, 0x00, 0x00,
        0xca, 0xde, 0xff, 0xff, 0x00, 0x00, 0x00, 0x03, 0x10, 0x00, 0x00, 0x00,
        0x04, 0x00, 0x00, 0x00, 0x14, 0x00, 0x00, 0x00, 0x1c, 0x00, 0x00, 0x00,
        0x02, 0x00, 0x00, 0x00, 0x01, 0x00, 0x00, 0x00, 0x04, 0x00, 0x00, 0x00,
        0x05, 0x00, 0x00, 0x00, 0x61, 0x64, 0x64, 0x5f, 0x31, 0x00, 0x00, 0x00,
        0x84, 0xfe, 0xff, 0xff, 0x2c, 0x00, 0x00, 0x00, 0x20, 0x00, 0x00, 0x00,
        0x14, 0x00, 0x00, 0x00, 0x04, 0x00, 0x00, 0x00, 0x01, 0x00, 0x00, 0x00,
        0x8c, 0x00, 0x00, 0x00, 0x00, 0x00, 0x00, 0x00, 0x01, 0x00, 0x00, 0x00,
        0xfc, 0x23, 0x8c, 0x3d, 0x01, 0x00, 0x00, 0x00, 0xa9, 0xd0, 0xfb, 0x40,
        0x01, 0x00, 0x00, 0x00, 0x5c, 0x47, 0x19, 0xc1, 0x32, 0xdf, 0xff, 0xff,
        0x00, 0x00, 0x00, 0x03, 0x10, 0x00, 0x00, 0x00, 0x03, 0x00, 0x00, 0x00,
        0x1c, 0x00, 0x00, 0x00, 0x44, 0x00, 0x00, 0x00, 0x04, 0x00, 0x00, 0x00,
        0x01, 0x00, 0x00, 0x00, 0x05, 0x00, 0x00, 0x00, 0x04, 0x00, 0x00, 0x00,
        0x04, 0x00, 0x00, 0x00, 0x25, 0x00, 0x00, 0x00, 0x77, 0x65, 0x69, 0x67,
        0x68, 0x74, 0x73, 0x5f, 0x71, 0x75, 0x61, 0x6e, 0x74, 0x2f, 0x46, 0x61,
        0x6b, 0x65, 0x51, 0x75, 0x61, 0x6e, 0x74, 0x57, 0x69, 0x74, 0x68, 0x4d,
        0x69, 0x6e, 0x4d, 0x61, 0x78, 0x56, 0x61, 0x72, 0x73, 0x00, 0x00, 0x00,
        0x14, 0xff, 0xff, 0xff, 0x30, 0x00, 0x00, 0x00, 0x24, 0x00, 0x00, 0x00,
        0x18, 0x00, 0x00, 0x00, 0x04, 0x00, 0x00, 0x00, 0x01, 0x00, 0x00, 0x00,
        0x7b, 0x00, 0x00, 0x00, 0x00, 0x00, 0x00, 0x00, 0x00, 0x00, 0x00, 0x00,
        0x01, 0x00, 0x00, 0x00, 0x83, 0x5b, 0x8c, 0x3a, 0x01, 0x00, 0x00, 0x00,
        0xcb, 0xfb, 0x10, 0x3e, 0x01, 0x00, 0x00, 0x00, 0xcc, 0x89, 0x05, 0xbe,
        0x50, 0x00, 0x00, 0x00, 0x28, 0x76, 0xcb, 0xf7, 0x7b, 0x71, 0x6c, 0x9b,
        0x65, 0xfb, 0x9a, 0xad, 0x96, 0xbe, 0x56, 0x61, 0x16, 0x5b, 0xe4, 0xff,
        0x9b, 0x45, 0x59, 0x74, 0x63, 0xf0, 0xa5, 0x96, 0xdc, 0xb8, 0x3f, 0x2a,
        0x51, 0x45, 0xe1, 0xf8, 0xb2, 0x2b, 0x4f, 0x65, 0x8f, 0xd0, 0x9d, 0x7a,
        0xd0, 0xa4, 0x39, 0x1e, 0x16, 0x35, 0xef, 0xfa, 0x7c, 0x14, 0x4a, 0x59,
        0x64, 0xa1, 0xb3, 0x63, 0xad, 0x8f, 0x35, 0x08, 0x08, 0x45, 0xd8, 0xda,
        0x82, 0x09, 0x56, 0x4b, 0x4c, 0x6e, 0xbc, 0x36, 0xab, 0x61, 0x49, 0x01,
        0x1a, 0xe0, 0xff, 0xff, 0x00, 0x00, 0x00, 0x03, 0x10, 0x00, 0x00, 0x00,
        0x02, 0x00, 0x00, 0x00, 0x14, 0x00, 0x00, 0x00, 0x54, 0x00, 0x00, 0x00,
        0x02, 0x00, 0x00, 0x00, 0x04, 0x00, 0x00, 0x00, 0xd0, 0x07, 0x00, 0x00,
        0x31, 0x00, 0x00, 0x00, 0x77, 0x65, 0x69, 0x67, 0x68, 0x74, 0x73, 0x5f,
        0x71, 0x75, 0x61, 0x6e, 0x74, 0x5f, 0x31, 0x2f, 0x46, 0x61, 0x6b, 0x65,
        0x51, 0x75, 0x61, 0x6e, 0x74, 0x57, 0x69, 0x74, 0x68, 0x4d, 0x69, 0x6e,
        0x4d, 0x61, 0x78, 0x56, 0x61, 0x72, 0x73, 0x2f, 0x74, 0x72, 0x61, 0x6e,
        0x73, 0x70, 0x6f, 0x73, 0x65, 0x00, 0x00, 0x00, 0x0c, 0x00, 0x14, 0x00,
        0x04, 0x00, 0x08, 0x00, 0x0c, 0x00, 0x10, 0x00, 0x0c, 0x00, 0x00, 0x00,
        0x2c, 0x00, 0x00, 0x00, 0x20, 0x00, 0x00, 0x00, 0x14, 0x00, 0x00, 0x00,
        0x04, 0x00, 0x00, 0x00, 0x01, 0x00, 0x00, 0x00, 0x71, 0x00, 0x00, 0x00,
        0x00, 0x00, 0x00, 0x00, 0x01, 0x00, 0x00, 0x00, 0x4c, 0xd4, 0xf0, 0x39,
        0x01, 0x00, 0x00, 0x00, 0x0e, 0x9a, 0x85, 0x3d, 0x01, 0x00, 0x00, 0x00,
        0x2a, 0xb1, 0x52, 0xbd, 0x40, 0x1f, 0x00, 0x00, 0x6e, 0x6d, 0x75, 0x6d,
        0x81, 0x5c, 0x9b, 0xa5, 0x59, 0x68, 0x71, 0x85, 0x77, 0x7d, 0x6b, 0x7d,
        0x6c, 0x71, 0x60, 0x6e, 0x75, 0x6d, 0x76, 0x76, 0x75, 0x6a, 0x74, 0x7a,
        0x77, 0x6e, 0x6f, 0x87, 0x7a, 0x76, 0x83, 0x8b, 0x64, 0x80, 0x6e, 0x6a,
        0x7a, 0x5d, 0x82, 0x72, 0x82, 0x62, 0x83, 0x6f, 0x58, 0x83, 0x94, 0x5d,
        0x6b, 0x71, 0x81, 0x7c, 0x6a, 0x84, 0x84, 0x7c, 0x79, 0x62, 0x8f, 0x79,
        0x7f, 0x74, 0x8e, 0x5f, 0x7b, 0x6f, 0x8c, 0x69, 0x78, 0x7c, 0x85, 0x72,
        0x53, 0x71, 0x7a, 0x78, 0x68, 0x75, 0x76, 0x78, 0x56, 0x8e, 0x6d, 0xbf,
        0x7b, 0x64, 0x74, 0x90, 0x61, 0x9c, 0x6c, 0x71, 0x92, 0x71, 0x51, 0x66,
        0x79, 0x7e, 0x6a, 0x82, 0x77, 0x96, 0x71, 0x5e, 0x70, 0x80, 0x79, 0x7e,
        0x70, 0x8b, 0x62, 0x7d, 0x67, 0x87, 0x80, 0x77, 0x6c, 0x6d, 0x7b, 0x6a,
        0x78, 0x78, 0x73, 0x75, 0x97, 0x7b, 0x64, 0x74, 0x9b, 0x61, 0x80, 0x70,
        0x72, 0x7c, 0x6f, 0x6e, 0x73, 0x7e, 0x73, 0x87, 0x87, 0x6c, 0x7f, 0x82,
        0x6e, 0x91, 0x7f, 0xa7, 0x61, 0x51, 0x84, 0xb2, 0x76, 0x71, 0x6b, 0x76,
        0x64, 0x46, 0x91, 0x6e, 0x65, 0x57, 0x6f, 0x9a, 0x77, 0x63, 0x6f, 0x5c,
        0x55, 0x63, 0x62, 0x63, 0x8e, 0x7d, 0x60, 0x46, 0x7f, 0x79, 0x6a, 0x50,
        0x77, 0x83, 0x5d, 0x65, 0x7b, 0x50, 0x6b, 0x63, 0x6e, 0x63, 0x5d, 0x56,
        0x86, 0x89, 0x60, 0x56, 0x80, 0x75, 0x64, 0x4a, 0x80, 0x88, 0x66, 0x6c,
        0x61, 0x73, 0x5e, 0x63, 0x81, 0x5b, 0x6e, 0x5c, 0x83, 0x84, 0x6b, 0x6e,
        0x81, 0x79, 0x67, 0x50, 0x81, 0x86, 0x7b, 0x5c, 0x7c, 0x84, 0x7b, 0x8c,
        0x6b, 0x7c, 0x69, 0x80, 0x5f, 0x6b, 0x6e, 0x7b, 0x6e, 0x49, 0x92, 0x73,
        0x58, 0x60, 0x77, 0x84, 0x4e, 0x59, 0x5a, 0x48, 0x49, 0x5b, 0x4d, 0x2d,
        0x85, 0x66, 0x55, 0x3b, 0x79, 0x79, 0x3d, 0x33, 0xa8, 0x80, 0x53, 0x3e,
        0x82, 0x58, 0x64, 0x36, 0x66, 0x66, 0x59, 0x43, 0x68, 0x76, 0x4e, 0x31,
        0x75, 0x66, 0x5a, 0x3f, 0x65, 0x59, 0x73, 0x4c, 0x89, 0x77, 0x65, 0x42,
        0x75, 0x78, 0x6d, 0x57, 0x73, 0x65, 0x6c, 0x51, 0x79, 0x68, 0x6a, 0x63,
        0x9b, 0x84, 0x74, 0x5c, 0x87, 0x80, 0x76, 0x65, 0xad, 0x80, 0x7a, 0x55,
        0x72, 0x6d, 0x7d, 0x6c, 0x67, 0x6b, 0x64, 0x89, 0x5c, 0x65, 0x5a, 0x69,
        0x69, 0x88, 0x48, 0x2a, 0x70, 0x3f, 0x59, 0x42, 0x6b, 0x73, 0x42, 0x5a,
        0x7b, 0x52, 0x48, 0x40, 0x99, 0xa3, 0x5f, 0x31, 0x8f, 0x64, 0x57, 0x66,
        0x84, 0x88, 0x51, 0x53, 0x75, 0x79, 0x63, 0x45, 0x71, 0x7c, 0x62, 0x2c,
        0x5d, 0x69, 0x5c, 0x48, 0x73, 0x5a, 0x78, 0x57, 0x7f, 0x68, 0x61, 0x5f,
        0x8a, 0x70, 0x5b, 0x4e, 0x67, 0x86, 0x54, 0x5c, 0x78, 0x73, 0x59, 0x73,
        0x9f, 0x56, 0x6f, 0x50, 0xa1, 0x9d, 0x6a, 0x52, 0x72, 0x88, 0x72, 0x70,
        0x6f, 0x61, 0x89, 0x56, 0x74, 0x5e, 0x4c, 0x79, 0x83, 0x80, 0x5b, 0x42,
        0x7b, 0x4f, 0x30, 0x5c, 0x82, 0x53, 0x3c, 0x4f, 0x7a, 0x8f, 0x57, 0x5a,
        0x8f, 0x82, 0x4b, 0x47, 0x71, 0x80, 0x62, 0x57, 0x84, 0x74, 0x78, 0x4f,
        0x73, 0x53, 0x5d, 0x55, 0x8b, 0x5b, 0x5d, 0x58, 0x77, 0x73, 0x61, 0x61,
        0x86, 0x6d, 0x6f, 0x66, 0x86, 0x99, 0x71, 0x6f, 0x84, 0x70, 0x62, 0x44,
        0x7c, 0x7c, 0x63, 0x69, 0x6d, 0x5f, 0x64, 0x45, 0x81, 0x79, 0x5e, 0x74,
        0x94, 0x8f, 0x73, 0x75, 0x7f, 0x60, 0x71, 0x6d, 0x76, 0x53, 0x67, 0x5f,
        0x70, 0x6a, 0x4e, 0x62, 0x88, 0x52, 0x43, 0x52, 0x6e, 0x60, 0x20, 0x46,
        0x7b, 0x62, 0x3c, 0x74, 0x8a, 0x6a, 0x57, 0x73, 0x90, 0x75, 0x5d, 0x56,
        0x67, 0x87, 0x72, 0x4a, 0x81, 0x69, 0x67, 0x31, 0x88, 0x6a, 0x5d, 0x4b,
        0x74, 0x7c, 0x71, 0x4d, 0x7d, 0x81, 0x84, 0x62, 0x71, 0x7e, 0x63, 0x81,
        0x70, 0x6d, 0x77, 0x6b, 0x6a, 0x83, 0x6b, 0x49, 0x63, 0x84, 0x55, 0x7f,
        0x80, 0x92, 0x65, 0x59, 0x8a, 0x84, 0x71, 0x5e, 0x8d, 0xa2, 0x68, 0x66,
        0x6e, 0x4c, 0x71, 0x64, 0x7d, 0x6f, 0x62, 0x44, 0x7e, 0x61, 0x46, 0x57,
        0x92, 0x6c, 0x37, 0x41, 0x6c, 0x62, 0x14, 0x3f, 0x79, 0x62, 0x3a, 0x3a,
        0x7c, 0x9b, 0x40, 0x3c, 0x7e, 0x97, 0x78, 0x76, 0x76, 0x94, 0x7e, 0x67,
        0x81, 0x8d, 0x5f, 0x52, 0x75, 0x67, 0x75, 0x66, 0x70, 0x6c, 0x5f, 0x4c,
        0x73, 0x8b, 0x64, 0x75, 0x83, 0x74, 0x54, 0x86, 0x7e, 0x5e, 0x75, 0x52,
        0x7e, 0x90, 0x70, 0x59, 0x69, 0x9c, 0x7b, 0x64, 0x83, 0x73, 0x8a, 0x6d,
        0x81, 0x88, 0x71, 0x5e, 0x90, 0x84, 0x4c, 0x68, 0x94, 0x95, 0x64, 0x6a,
        0x70, 0x61, 0x75, 0x67, 0x6d, 0x5e, 0x36, 0x5a, 0x93, 0x63, 0x28, 0x57,
        0x89, 0x63, 0x1d, 0x35, 0x7a, 0x7a, 0x22, 0x67, 0x7b, 0x99, 0x61, 0x54,
        0x84, 0x8d, 0x5e, 0x5c, 0x79, 0x61, 0x6a, 0x59, 0x89, 0x77, 0x44, 0x78,
        0x63, 0x7f, 0x6f, 0x6e, 0x6e, 0x65, 0x6e, 0x71, 0x76, 0x86, 0x84, 0x76,
        0x7e, 0x82, 0x69, 0x76, 0x88, 0x83, 0x62, 0x62, 0x76, 0x93, 0x83, 0x87,
        0x7b, 0x66, 0x61, 0x61, 0x7b, 0x8a, 0x72, 0x4c, 0x73, 0x83, 0x63, 0x7b,
        0x95, 0x87, 0x75, 0x6e, 0x92, 0x6d, 0x69, 0x6d, 0x82, 0x61, 0x7a, 0x51,
        0x90, 0x6f, 0x26, 0x4b, 0x93, 0x84, 0x36, 0x58, 0x94, 0x7e, 0x05, 0x2c,
        0x71, 0x5a, 0x3b, 0x75, 0x5f, 0x84, 0x4f, 0x54, 0x88, 0x88, 0x5e, 0x6e,
        0x77, 0x77, 0x85, 0x67, 0x6b, 0x64, 0x57, 0x4a, 0x62, 0x89, 0x61, 0x5c,
        0x73, 0x5f, 0x86, 0x73, 0x6a, 0x91, 0x65, 0x5b, 0x76, 0x94, 0x66, 0x67,
        0x64, 0x5a, 0x71, 0x66, 0x74, 0x6d, 0x6f, 0x65, 0x6e, 0x94, 0x66, 0x5d,
        0x69, 0x91, 0x54, 0x7a, 0x8b, 0x63, 0x52, 0x6d, 0x7e, 0x74, 0x63, 0x77,
        0x84, 0x7a, 0x6f, 0x5a, 0x6e, 0x50, 0x6b, 0x4b, 0x7f, 0x6b, 0x1b, 0x47,
        0xa3, 0x60, 0x0a, 0x48, 0x96, 0x5c, 0x28, 0x4a, 0x6e, 0x74, 0x34, 0x69,
        0x7a, 0x8c, 0x5a, 0x68, 0x7d, 0x66, 0x4f, 0x6c, 0x76, 0x76, 0x62, 0x67,
        0x75, 0x92, 0x6a, 0x55, 0x77, 0x82, 0x6e, 0x46, 0x6d, 0x87, 0x60, 0x69,
        0x61, 0x71, 0x78, 0x73, 0x73, 0x85, 0x6e, 0x78, 0x74, 0x7a, 0x74, 0x6f,
        0x6f, 0x90, 0x8d, 0x56, 0x67, 0xa3, 0x76, 0x50, 0x84, 0x60, 0x5e, 0x4c,
        0x78, 0x95, 0x5b, 0x85, 0x7b, 0x8b, 0x4a, 0x70, 0x5e, 0x8c, 0x67, 0x69,
        0x76, 0x55, 0x6b, 0x6c, 0x95, 0x50, 0x13, 0x40, 0x9a, 0x79, 0x33, 0x62,
        0x97, 0x79, 0x33, 0x62, 0x81, 0x73, 0x39, 0x45, 0x6a, 0x9c, 0x36, 0x62,
        0x79, 0x7a, 0x44, 0x44, 0x79, 0x7d, 0x65, 0x5c, 0x70, 0x73, 0x4d, 0x50,
        0x81, 0x8a, 0x6f, 0x7a, 0x70, 0x81, 0x55, 0x52, 0x6d, 0x81, 0x51, 0x5b,
        0x55, 0x9c, 0x5f, 0x84, 0x6b, 0x6b, 0x78, 0x62, 0x7a, 0x6b, 0x5e, 0x4f,
        0x64, 0x7f, 0x5b, 0x5e, 0x78, 0x8f, 0x71, 0x60, 0x7c, 0x9d, 0x6f, 0x6d,
        0x74, 0x97, 0x6a, 0x43, 0x89, 0x73, 0x5a, 0x6c, 0x7b, 0x56, 0x7c, 0x55,
        0x92, 0x46, 0x10, 0x2e, 0xae, 0x7b, 0x36, 0x59, 0x96, 0x68, 0x1c, 0x3d,
        0x78, 0x5f, 0x12, 0x5d, 0x79, 0x7c, 0x4b, 0x63, 0x7c, 0x91, 0x39, 0x6f,
        0x64, 0x6e, 0x67, 0x72, 0x79, 0x93, 0x4e, 0x62, 0x69, 0x72, 0x57, 0x5a,
        0x77, 0xa3, 0x80, 0x7e, 0x6a, 0x67, 0x68, 0x59, 0x7b, 0x6a, 0x62, 0x7c,
        0x77, 0x7f, 0x69, 0x53, 0x68, 0x87, 0x56, 0x88, 0x6a, 0x6a, 0x69, 0x6e,
        0x76, 0x83, 0x57, 0x50, 0x6a, 0x90, 0x5f, 0x7f, 0x6c, 0xa0, 0x82, 0x63,
        0x5d, 0x8e, 0x78, 0x69, 0x84, 0x50, 0x75, 0x8a, 0xa0, 0x69, 0x22, 0x49,
        0x96, 0x79, 0x10, 0x59, 0x8d, 0x61, 0x03, 0x56, 0x86, 0x6f, 0x10, 0x48,
        0x7e, 0x76, 0x3e, 0x57, 0x81, 0x84, 0x58, 0x54, 0x71, 0x8d, 0x6c, 0x7a,
        0x70, 0xa0, 0x42, 0x56, 0x6a, 0x69, 0x5a, 0x71, 0x63, 0x7a, 0x3d, 0x43,
        0x68, 0x9f, 0x71, 0x54, 0x6c, 0x68, 0x59, 0x7c, 0x80, 0x90, 0x61, 0x69,
        0x75, 0x79, 0x75, 0x62, 0x64, 0x79, 0x5f, 0x51, 0x6b, 0x94, 0x5c, 0x5c,
        0x71, 0x99, 0x4c, 0x73, 0x63, 0x8e, 0x4c, 0x6b, 0x6f, 0x59, 0x6b, 0x75,
        0x93, 0x6a, 0x6d, 0x65, 0xa5, 0x4f, 0x20, 0x45, 0xb6, 0x69, 0x1e, 0x49,
        0x97, 0x60, 0x16, 0x30, 0x74, 0x84, 0x2d, 0x46, 0x77, 0x9a, 0x1d, 0x4f,
        0x6e, 0xa3, 0x34, 0x73, 0x6b, 0x91, 0x53, 0x55, 0x71, 0x7d, 0x63, 0x5a,
        0x6b, 0x6f, 0x54, 0x78, 0x6e, 0x8e, 0x67, 0x5f, 0x7b, 0x76, 0x50, 0x7e,
        0x71, 0x7e, 0x41, 0x80, 0x79, 0x64, 0x4e, 0x6c, 0x66, 0x76, 0x5f, 0x6d,
        0x57, 0x71, 0x61, 0x61, 0x60, 0xa0, 0x50, 0x71, 0x6f, 0x97, 0x5b, 0x6b,
        0x5f, 0x94, 0x56, 0x54, 0x79, 0x69, 0x82, 0x58, 0x9e, 0x71, 0x70, 0x7c,
        0xb1, 0x6d, 0x12, 0x4e, 0xbc, 0x57, 0x27, 0x43, 0xad, 0x74, 0x16, 0x20,
        0x7e, 0x61, 0x30, 0x63, 0x76, 0x7e, 0x1d, 0x5c, 0x71, 0x8d, 0x59, 0x5b,
        0x7d, 0x71, 0x61, 0x61, 0x79, 0x89, 0x35, 0x3d, 0x7a, 0x5a, 0x42, 0x36,
        0x6d, 0x8d, 0x6d, 0x6c, 0x7c, 0x63, 0x62, 0x71, 0x61, 0x6d, 0x6b, 0x6c,
        0x6a, 0x79, 0x51, 0x7c, 0x66, 0x94, 0x59, 0x64, 0x6b, 0x9c, 0x4f, 0x6c,
        0x6e, 0x88, 0x53, 0x3e, 0x7b, 0x65, 0x4e, 0x4b, 0x5a, 0x7b, 0x6c, 0x82,
        0x82, 0x8f, 0x70, 0x7c, 0x98, 0x5e, 0x71, 0x88, 0xb4, 0x5a, 0x2f, 0x70,
        0xc7, 0x7a, 0x2e, 0x3d, 0xaf, 0x61, 0x03, 0x30, 0x7f, 0x6e, 0x2a, 0x53,
        0x6e, 0x8f, 0x39, 0x4a, 0x84, 0x76, 0x26, 0x50, 0x79, 0x82, 0x5c, 0x49,
        0x76, 0x86, 0x41, 0x6d, 0x70, 0x88, 0x32, 0x40, 0x62, 0x77, 0x46, 0x4f,
        0x5a, 0x70, 0x41, 0x58, 0x66, 0x68, 0x59, 0x6e, 0x61, 0x99, 0x7c, 0x55,
        0x5f, 0x88, 0x3e, 0x76, 0x5f, 0x8a, 0x45, 0x3d, 0x67, 0x8f, 0x75, 0x3d,
        0x62, 0x73, 0x5d, 0x81, 0x63, 0xa8, 0x63, 0x77, 0x4c, 0x95, 0x74, 0x7e,
        0x93, 0x52, 0x92, 0x79, 0xbd, 0x73, 0x18, 0x7d, 0xcd, 0x61, 0x07, 0x50,
        0x96, 0x6e, 0x0a, 0x58, 0x9f, 0x6f, 0x19, 0x2e, 0x7e, 0x95, 0x1c, 0x47,
        0x79, 0x85, 0x46, 0x4d, 0x7e, 0x87, 0x38, 0x66, 0x74, 0x96, 0x43, 0x59,
        0x64, 0x84, 0x64, 0x62, 0x5b, 0x8c, 0x44, 0x62, 0x52, 0x98, 0x74, 0x3c,
        0x7f, 0x66, 0x58, 0x61, 0x6e, 0x8f, 0x67, 0x59, 0x63, 0x78, 0x63, 0x54,
        0x62, 0x69, 0x53, 0x5b, 0x61, 0x76, 0x50, 0x7e, 0x70, 0x92, 0x4b, 0x7a,
        0x5c, 0x79, 0x59, 0x5b, 0x74, 0x8c, 0x88, 0x7d, 0x8d, 0x5e, 0x67, 0x60,
        0xb0, 0x7e, 0x4a, 0x6c, 0xd1, 0x64, 0x0e, 0x64, 0xa3, 0x65, 0x1d, 0x42,
        0x86, 0x6d, 0x21, 0x59, 0x86, 0x63, 0x3d, 0x5a, 0x7b, 0x97, 0x47, 0x50,
        0x72, 0x71, 0x59, 0x56, 0x7b, 0x9a, 0x4f, 0x34, 0x88, 0x73, 0x4c, 0x46,
        0x57, 0x74, 0x3a, 0x47, 0x61, 0x78, 0x32, 0x69, 0x61, 0x6d, 0x5c, 0x6b,
        0x6d, 0x7b, 0x37, 0x6c, 0x56, 0x8d, 0x3e, 0x5c, 0x4e, 0x91, 0x54, 0x75,
        0x5b, 0x7b, 0x46, 0x48, 0x73, 0x8a, 0x3a, 0x60, 0x6b, 0x78, 0x69, 0x41,
        0x4e, 0x70, 0x7f, 0x89, 0xbf, 0x5d, 0x6a, 0x7b, 0xcb, 0x86, 0x36, 0x57,
        0xcf, 0x71, 0x15, 0x56, 0xa2, 0x85, 0x1d, 0x34, 0x7d, 0x61, 0x01, 0x4e,
        0x70, 0x7e, 0x26, 0x49, 0x85, 0x86, 0x51, 0x62, 0x78, 0x99, 0x5c, 0x65,
        0x6f, 0xa2, 0x4c, 0x33, 0x72, 0x7f, 0x54, 0x4f, 0x5b, 0x8e, 0x59, 0x41,
        0x56, 0x97, 0x65, 0x52, 0x5f, 0x90, 0x71, 0x43, 0x74, 0x90, 0x48, 0x69,
        0x5a, 0x67, 0x3b, 0x55, 0x74, 0x8a, 0x64, 0x70, 0x64, 0x81, 0x61, 0x6e,
        0x4d, 0x86, 0x62, 0x45, 0x58, 0x69, 0x45, 0x66, 0x63, 0x92, 0x82, 0x7b,
        0xad, 0x62, 0x6a, 0x8a, 0xc9, 0x73, 0x39, 0x50, 0xe2, 0x7a, 0x28, 0x4b,
        0xae, 0x64, 0x14, 0x5e, 0x89, 0x70, 0x37, 0x62, 0x84, 0x71, 0x23, 0x49,
        0x8c, 0x68, 0x45, 0x49, 0x7a, 0x71, 0x53, 0x66, 0x85, 0x8b, 0x48, 0x5b,
        0x71, 0x71, 0x68, 0x43, 0x5b, 0x74, 0x3a, 0x70, 0x55, 0x77, 0x62, 0x53,
        0x6b, 0x6b, 0x3b, 0x54, 0x67, 0x64, 0x40, 0x57, 0x54, 0x87, 0x54, 0x60,
        0x61, 0x8c, 0x45, 0x4e, 0x67, 0x85, 0x5e, 0x65, 0x69, 0x84, 0x5b, 0x85,
        0x62, 0x6c, 0x49, 0x68, 0x4d, 0x88, 0x8e, 0x86, 0xb4, 0x73, 0x73, 0x63,
        0xc1, 0x71, 0x3c, 0x5d, 0xd8, 0x6f, 0x30, 0x4a, 0xb5, 0x67, 0x28, 0x4d,
        0xa0, 0x6f, 0x26, 0x4d, 0x69, 0x93, 0x33, 0x72, 0x8a, 0x7f, 0x44, 0x75,
        0x8b, 0x89, 0x36, 0x62, 0x83, 0x73, 0x5d, 0x46, 0x91, 0x63, 0x60, 0x49,
        0x6f, 0x74, 0x46, 0x51, 0x64, 0x68, 0x3e, 0x77, 0x64, 0x87, 0x31, 0x53,
        0x74, 0x71, 0x50, 0x67, 0x6c, 0x8f, 0x43, 0x6c, 0x63, 0x88, 0x39, 0x72,
        0x72, 0x80, 0x4a, 0x57, 0x61, 0x73, 0x6f, 0x69, 0x43, 0x66, 0x5d, 0x8d,
        0x3f, 0x7c, 0x9e, 0x9b, 0xc8, 0x5a, 0x8c, 0x7f, 0xdf, 0x60, 0x52, 0x66,
        0xeb, 0x86, 0x3c, 0x53, 0xbc, 0x61, 0x04, 0x4b, 0x89, 0x62, 0x21, 0x58,
        0x8f, 0x66, 0x3f, 0x52, 0x85, 0x79, 0x39, 0x64, 0x82, 0x89, 0x3c, 0x46,
        0x92, 0x87, 0x47, 0x57, 0x85, 0x64, 0x48, 0x60, 0x69, 0x61, 0x49, 0x5d,
        0x7d, 0x6e, 0x4a, 0x72, 0x77, 0x7f, 0x4e, 0x7b, 0x77, 0x87, 0x40, 0x6c,
        0x5f, 0x9f, 0x68, 0x64, 0x6d, 0x73, 0x55, 0x5a, 0x70, 0x80, 0x68, 0x44,
        0x5f, 0x86, 0x65, 0x64, 0x61, 0x8e, 0x69, 0x6d, 0x44, 0x85, 0x89, 0x96,
        0xc8, 0x50, 0x77, 0x5d, 0xd6, 0x5b, 0x58, 0x64, 0xf8, 0x69, 0x45, 0x7a,
        0xce, 0x69, 0x26, 0x5f, 0xa3, 0x57, 0x3a, 0x3e, 0x7b, 0x7a, 0x47, 0x40,
        0x88, 0x6e, 0x3a, 0x57, 0xb0, 0x6d, 0x6a, 0x3d, 0xa2, 0x6c, 0x55, 0x5d,
        0x76, 0x8b, 0x6e, 0x52, 0x87, 0x72, 0x4d, 0x61, 0x74, 0x6f, 0x51, 0x51,
        0x87, 0x8b, 0x37, 0x37, 0x8b, 0x7f, 0x64, 0x6c, 0x78, 0x77, 0x2f, 0x56,
        0x6f, 0x91, 0x62, 0x40, 0x6c, 0x63, 0x60, 0x59, 0x5c, 0x71, 0x65, 0x53,
        0x55, 0x74, 0x49, 0x5b, 0x67, 0x8f, 0x76, 0x96, 0xe8, 0x6f, 0x78, 0x58,
        0xff, 0x82, 0x6f, 0x9b, 0xff, 0x7c, 0x59, 0x7a, 0xf5, 0x7e, 0x4d, 0x6b,
        0xbd, 0x72, 0x70, 0x64, 0xb7, 0x65, 0x72, 0x62, 0xa9, 0x7a, 0x75, 0x71,
        0x97, 0x7c, 0x73, 0x53, 0xae, 0x76, 0x57, 0x4f, 0x83, 0x77, 0x5d, 0x77,
        0xae, 0x88, 0x56, 0x7d, 0x8a, 0x5a, 0x61, 0x7d, 0x87, 0x6f, 0x6a, 0x68,
        0x98, 0x8e, 0x87, 0x8d, 0x8a, 0x88, 0x55, 0x4d, 0x79, 0x7b, 0x75, 0x4f,
        0x83, 0x82, 0x4a, 0x61, 0x81, 0x7d, 0x84, 0x6d, 0x70, 0x6c, 0x7b, 0x90,
        0x45, 0x6a, 0x9c, 0x8e, 0x73, 0x67, 0x5b, 0x6f, 0x62, 0x69, 0x66, 0x50,
        0x73, 0x58, 0x6c, 0x5b, 0x8a, 0x7a, 0x64, 0x79, 0x8a, 0x89, 0x64, 0x66,
        0x81, 0x69, 0x7a, 0x7d, 0x79, 0x75, 0x77, 0x4e, 0x67, 0x8c, 0x65, 0x56,
        0x67, 0x5d, 0x74, 0x6a, 0x6f, 0x80, 0x6f, 0x78, 0x70, 0x84, 0x74, 0x91,
        0x6b, 0x4f, 0x72, 0x6c, 0x6f, 0x5b, 0x7e, 0x89, 0x92, 0x65, 0x6a, 0x5a,
        0x72, 0x59, 0x72, 0x7a, 0x5d, 0x91, 0x6b, 0x61, 0x78, 0x71, 0x6a, 0x54,
        0x6d, 0x6d, 0x7c, 0x6f, 0x7d, 0x7c, 0x59, 0x70, 0x71, 0x5f, 0x75, 0x69,
        0x6d, 0x77, 0x94, 0x4b, 0x72, 0x52, 0x65, 0x46, 0x69, 0x6d, 0x75, 0x70,
        0x6c, 0x62, 0x7f, 0x5f, 0x57, 0x5f, 0x5f, 0x71, 0x87, 0x64, 0x6d, 0x70,
        0x51, 0x64, 0x81, 0x55, 0x75, 0x87, 0x76, 0x68, 0x85, 0x7b, 0x67, 0x5c,
        0x7f, 0x55, 0x7b, 0x68, 0x5d, 0x58, 0x77, 0x68, 0x95, 0x6c, 0x70, 0x57,
        0x6b, 0x52, 0x66, 0x5e, 0x6b, 0x92, 0x78, 0x5e, 0x82, 0x61, 0x6a, 0x55,
        0x8e, 0x70, 0x6e, 0x69, 0x72, 0x84, 0x70, 0x63, 0x5f, 0x82, 0x73, 0x6e,
        0x6b, 0x7a, 0x77, 0x77, 0x94, 0x67, 0x66, 0x73, 0x6b, 0x77, 0x6c, 0x69,
        0x6a, 0x7e, 0x74, 0x4d, 0x64, 0x63, 0x81, 0x66, 0x72, 0x5d, 0x72, 0x74,
        0x6e, 0x5b, 0x78, 0x62, 0x88, 0x87, 0x84, 0x72, 0x5b, 0x7e, 0x7e, 0x76,
        0x7c, 0x58, 0x84, 0x74, 0x8e, 0x64, 0x68, 0x79, 0x74, 0x69, 0x6f, 0x73,
        0x76, 0x8c, 0x74, 0x74, 0x71, 0x8a, 0x6c, 0x82, 0x77, 0x7e, 0x65, 0x64,
        0x54, 0x7b, 0x77, 0x69, 0x7a, 0x5d, 0x6f, 0x84, 0x6c, 0x55, 0x71, 0x61,
        0x77, 0x81, 0x76, 0x6a, 0x6c, 0x68, 0x7f, 0x7c, 0x74, 0x9d, 0x6b, 0x72,
        0x57, 0x92, 0x6d, 0x7a, 0x73, 0x86, 0x7d, 0x60, 0x69, 0x76, 0x86, 0x6e,
        0x59, 0x57, 0x7d, 0x89, 0x56, 0x60, 0x6c, 0x6b, 0x5c, 0x5b, 0x84, 0x59,
        0x6d, 0x74, 0x69, 0x6d, 0x64, 0x68, 0x83, 0x6f, 0x81, 0x70, 0x81, 0x6a,
        0x6e, 0x5b, 0x7b, 0x95, 0x6e, 0x9b, 0x6d, 0x7c, 0x6d, 0x77, 0x79, 0x70,
        0x6d, 0x4c, 0x7b, 0x7b, 0x75, 0x64, 0x78, 0x6e, 0x77, 0x73, 0x7e, 0x81,
        0x62, 0x65, 0x77, 0x77, 0x65, 0x82, 0x72, 0x8d, 0x68, 0x91, 0x7c, 0x83,
        0x6e, 0x75, 0x7e, 0x74, 0x72, 0x73, 0x84, 0x72, 0x6a, 0x5b, 0x7d, 0x6f,
        0x70, 0x86, 0x91, 0x63, 0x7f, 0x51, 0x5e, 0x60, 0x65, 0x72, 0x7b, 0x75,
        0x62, 0x62, 0x81, 0x6c, 0x66, 0x6d, 0x6e, 0x76, 0x67, 0x78, 0x75, 0x64,
        0x79, 0x89, 0x8c, 0x62, 0x6d, 0x90, 0x87, 0x78, 0x7b, 0x69, 0x72, 0x81,
        0x68, 0x88, 0x82, 0x66, 0x80, 0x6b, 0x85, 0x6c, 0x59, 0x61, 0x6b, 0x72,
        0x64, 0x73, 0x7c, 0x70, 0x4c, 0x68, 0x75, 0x7b, 0x6e, 0x77, 0x6a, 0x6b,
        0x5d, 0x64, 0x64, 0x87, 0x5e, 0x61, 0x6d, 0x79, 0x70, 0x71, 0x7f, 0x75,
        0x7a, 0x8d, 0x71, 0x76, 0x73, 0x7c, 0x70, 0x71, 0x70, 0x77, 0x8d, 0x5f,
        0x8c, 0x61, 0x71, 0x8f, 0x60, 0x52, 0x83, 0x90, 0x65, 0x5a, 0x68, 0x8f,
        0x62, 0x59, 0x6f, 0x84, 0x6b, 0x6c, 0x77, 0x61, 0x61, 0x73, 0x72, 0x5c,
        0x6d, 0x77, 0x82, 0x6f, 0x76, 0x82, 0x92, 0x83, 0x74, 0xa2, 0x7e, 0x79,
        0x7a, 0x79, 0x73, 0x67, 0x67, 0x85, 0x7b, 0x72, 0x75, 0x5c, 0x73, 0x80,
        0x71, 0x57, 0x71, 0x7e, 0x5e, 0x80, 0x74, 0x82, 0x61, 0x72, 0x79, 0xa2,
        0x47, 0x76, 0x67, 0x76, 0x72, 0x93, 0x59, 0x74, 0x5a, 0x96, 0x76, 0x94,
        0x7d, 0x73, 0x73, 0x79, 0x78, 0x71, 0x59, 0x5d, 0x78, 0x62, 0x76, 0xa1,
        0x5f, 0x62, 0x6a, 0xaf, 0x54, 0x69, 0x64, 0x88, 0x66, 0x6d, 0x6d, 0x97,
        0x74, 0x75, 0x74, 0x73, 0x70, 0x77, 0x85, 0x60, 0x5e, 0x95, 0x8c, 0x67,
        0x7e, 0x98, 0x87, 0x70, 0x71, 0xa7, 0x80, 0x66, 0x72, 0x91, 0x85, 0x79,
        0x6a, 0x62, 0x78, 0x73, 0x5a, 0x75, 0x64, 0x6e, 0x4d, 0x56, 0x71, 0x78,
        0x62, 0x53, 0x6c, 0x82, 0x58, 0x5b, 0x75, 0xa4, 0x5e, 0x7a, 0x6d, 0x93,
        0x6c, 0x93, 0x63, 0x8e, 0x64, 0x97, 0x73, 0x89, 0x99, 0x82, 0x71, 0x64,
        0x77, 0x82, 0x6e, 0x5d, 0x7c, 0x69, 0x89, 0x9b, 0x63, 0x60, 0x74, 0xbe,
        0x56, 0x68, 0x7f, 0xa7, 0x6c, 0x59, 0x75, 0x89, 0x6b, 0x7b, 0x6e, 0x6b,
        0x64, 0x89, 0x91, 0x65, 0x6a, 0x8d, 0x82, 0x80, 0x76, 0x94, 0x6b, 0x6e,
        0x68, 0x90, 0x87, 0x4a, 0x6f, 0x7d, 0x76, 0x61, 0x69, 0x6e, 0x79, 0x9a,
        0x71, 0x54, 0x68, 0x82, 0x6d, 0x71, 0x69, 0x73, 0x6e, 0x61, 0x77, 0x84,
        0x5e, 0x69, 0x7c, 0x96, 0x69, 0x71, 0x69, 0x8c, 0x61, 0x9b, 0x80, 0x7d,
        0x66, 0x8a, 0x52, 0x8d, 0x5f, 0x7c, 0x65, 0x6f, 0x68, 0x71, 0x7e, 0x80,
        0x6b, 0x62, 0x86, 0x9b, 0x66, 0x5f, 0x74, 0xc2, 0x6f, 0x5c, 0x73, 0x94,
        0x67, 0x69, 0x79, 0x95, 0x72, 0x55, 0x62, 0x61, 0x6f, 0x7b, 0x7e, 0x64,
        0x67, 0x80, 0x86, 0x6c, 0x7d, 0xa8, 0x85, 0x78, 0x63, 0x83, 0x86, 0x57,
        0x69, 0x83, 0x7e, 0x73, 0x70, 0x6b, 0x6a, 0x83, 0x74, 0x62, 0x58, 0x87,
        0x6b, 0x62, 0x78, 0x67, 0x6b, 0x4f, 0x67, 0x9f, 0x70, 0x5b, 0x6d, 0x9e,
        0x63, 0x5e, 0x79, 0xad, 0x68, 0x85, 0x6d, 0x7b, 0x76, 0x92, 0x5c, 0x78,
        0x74, 0x6d, 0x6e, 0x72, 0x7b, 0x7e, 0x6d, 0x73, 0x70, 0x6d, 0x88, 0x9e,
        0x5f, 0x4c, 0x89, 0xc6, 0x77, 0x4b, 0x5b, 0xb0, 0x66, 0x50, 0x6e, 0x97,
        0x5e, 0x52, 0x7d, 0x6a, 0x68, 0x7d, 0x7a, 0x51, 0x71, 0xb1, 0x88, 0x5c,
        0x6a, 0xa3, 0x9e, 0x55, 0x5e, 0x8b, 0x84, 0x64, 0x76, 0x9f, 0x80, 0x73,
        0x61, 0x71, 0x7b, 0x8f, 0x6d, 0x6d, 0x75, 0x7b, 0x53, 0x53, 0x58, 0x7c,
        0x62, 0x78, 0x76, 0x92, 0x63, 0x5f, 0x7a, 0x99, 0x60, 0x74, 0x67, 0xaa,
        0x6a, 0x62, 0x65, 0x8a, 0x70, 0x75, 0x5d, 0x8d, 0x9a, 0x78, 0x6e, 0x62,
        0x5d, 0x76, 0x73, 0x76, 0x56, 0x61, 0x95, 0xaf, 0x6e, 0x3c, 0x80, 0xd5,
        0x7f, 0x6a, 0x73, 0xb6, 0x5f, 0x63, 0x83, 0x8d, 0x64, 0x48, 0x91, 0x63,
        0x68, 0x9e, 0x70, 0x5a, 0x6c, 0x9b, 0x7e, 0x61, 0x77, 0xa0, 0x9a, 0x6c,
        0x76, 0xaa, 0x7e, 0x5b, 0x78, 0x80, 0xa0, 0x72, 0x67, 0x71, 0x7f, 0x81,
        0x6d, 0x57, 0x74, 0x85, 0x70, 0x44, 0x52, 0x83, 0x68, 0x57, 0x7b, 0x8b,
        0x6d, 0x5a, 0x75, 0x91, 0x7e, 0x68, 0x6d, 0x8d, 0x73, 0x64, 0x67, 0x8f,
        0x7d, 0x7a, 0x6e, 0x65, 0x58, 0x7b, 0x60, 0x62, 0x6a, 0x6b, 0x69, 0x63,
        0x64, 0x51, 0x92, 0x9a, 0x61, 0x69, 0x88, 0xc6, 0x6d, 0x63, 0x83, 0xbc,
        0x6e, 0x61, 0x7f, 0x94, 0x59, 0x50, 0x8d, 0x6d, 0x63, 0x81, 0x80, 0x6c,
        0x7d, 0x91, 0x96, 0x72, 0x78, 0x9e, 0x8a, 0x6c, 0x7f, 0xa9, 0x9d, 0x6c,
        0x75, 0xa7, 0x99, 0x87, 0x78, 0x7a, 0x88, 0x93, 0x52, 0x83, 0x75, 0x85,
        0x68, 0x62, 0x6f, 0x90, 0x6b, 0x58, 0x6d, 0xa5, 0x69, 0x73, 0x75, 0x93,
        0x73, 0x83, 0x70, 0x8e, 0x74, 0x61, 0x63, 0x8d, 0x6f, 0x6b, 0x6a, 0x73,
        0x6d, 0x77, 0x51, 0x64, 0x60, 0x77, 0x91, 0x81, 0x5d, 0x63, 0x87, 0x9b,
        0x6d, 0x52, 0xa9, 0xc8, 0x68, 0x44, 0x6b, 0xb9, 0x65, 0x58, 0x77, 0x98,
        0x63, 0x5d, 0x74, 0x7f, 0x66, 0x9e, 0x7d, 0x6e, 0x6d, 0x9a, 0x9e, 0x84,
        0x82, 0xa3, 0x85, 0x6c, 0x72, 0xa1, 0x84, 0x63, 0x80, 0x90, 0x9a, 0x91,
        0x81, 0x84, 0x72, 0x89, 0x7b, 0x89, 0x74, 0x8a, 0x6e, 0x5b, 0x6e, 0x7c,
        0x67, 0x53, 0x60, 0xa6, 0x6b, 0x52, 0x69, 0x8e, 0x70, 0x6f, 0x6a, 0x80,
        0x6e, 0x6a, 0x66, 0x8e, 0x71, 0x7a, 0x4f, 0x74, 0x6f, 0x8c, 0x5e, 0x5a,
        0x68, 0x84, 0x86, 0x72, 0x59, 0x63, 0x7f, 0x9a, 0x5b, 0x5b, 0x95, 0xc8,
        0x6b, 0x68, 0x87, 0xa2, 0x68, 0x5d, 0x6c, 0x8f, 0x72, 0x66, 0x7c, 0x6c,
        0x62, 0x91, 0x80, 0x70, 0x76, 0xaa, 0x92, 0x67, 0x76, 0x9a, 0x95, 0x6e,
        0x79, 0x83, 0x98, 0x5d, 0x70, 0x91, 0x86, 0x8b, 0x79, 0x7a, 0x8b, 0x9e,
        0x74, 0x6f, 0x74, 0x8c, 0x77, 0x6a, 0x75, 0x95, 0x6b, 0x57, 0x66, 0x99,
        0x6b, 0x60, 0x6b, 0x9d, 0x72, 0x87, 0x5b, 0x8f, 0x78, 0x83, 0x55, 0x8b,
        0x64, 0x97, 0x48, 0x78, 0xac, 0x8e, 0x57, 0x66, 0x7b, 0x75, 0x6f, 0x5b,
        0x5f, 0x6b, 0x98, 0xaf, 0x6d, 0x59, 0x85, 0xbb, 0x77, 0x64, 0x82, 0x9f,
        0x60, 0x5d, 0x85, 0x89, 0x5b, 0x4a, 0x86, 0x75, 0x5b, 0x9b, 0x82, 0x64,
        0x66, 0xc0, 0x8d, 0x6b, 0x75, 0xa8, 0x93, 0x63, 0x7b, 0x86, 0x96, 0x82,
        0x74, 0x88, 0x81, 0x7b, 0x88, 0x88, 0x83, 0x94, 0x71, 0x67, 0x7c, 0x8c,
        0x74, 0x84, 0x72, 0x93, 0x5b, 0x62, 0x7a, 0xa0, 0x66, 0x70, 0x7d, 0x93,
        0x57, 0x4c, 0x5a, 0xa4, 0x6f, 0x6e, 0x6c, 0x75, 0x75, 0x80, 0x5f, 0x6e,
        0x69, 0x61, 0x5b, 0x50, 0x84, 0x7e, 0x8b, 0x9b, 0x69, 0x68, 0xab, 0xa8,
        0x6c, 0x59, 0x97, 0xc4, 0x78, 0x78, 0x77, 0xb1, 0x5f, 0x46, 0x8a, 0x7a,
        0x66, 0x5c, 0x77, 0x60, 0x5e, 0x88, 0x81, 0x5c, 0x77, 0xb8, 0x82, 0x88,
        0x85, 0x9e, 0x8e, 0x73, 0x86, 0x9f, 0x96, 0x6c, 0x81, 0x94, 0x9a, 0x70,
        0x8b, 0xa5, 0x85, 0xa0, 0x69, 0x89, 0x88, 0x8b, 0x5b, 0x6a, 0x7c, 0x8e,
        0x6c, 0x58, 0x6c, 0xac, 0x6d, 0x6b, 0x6a, 0x8c, 0x69, 0x64, 0x73, 0x90,
        0x7b, 0x72, 0x72, 0x92, 0x6d, 0x86, 0x59, 0x81, 0x90, 0x7c, 0x50, 0x5d,
        0x73, 0x81, 0x72, 0x7d, 0x61, 0x59, 0xb1, 0xb6, 0x5d, 0x72, 0x97, 0xb2,
        0x8a, 0x67, 0x79, 0xa7, 0x56, 0x5d, 0x91, 0x7f, 0x4d, 0x6f, 0x79, 0x6a,
        0x6f, 0x79, 0x93, 0x63, 0x6f, 0x9f, 0x97, 0x89, 0x91, 0xa4, 0x9a, 0x78,
        0x7d, 0x8c, 0x99, 0x77, 0x80, 0x75, 0x8f, 0x76, 0x6b, 0x75, 0x7d, 0xa2,
        0x7a, 0x6b, 0x86, 0xa7, 0x62, 0x73, 0x8b, 0x7e, 0x68, 0x57, 0x71, 0xa5,
        0x6d, 0x6f, 0x73, 0x8b, 0x6a, 0x63, 0x72, 0x88, 0x70, 0x80, 0x51, 0x86,
        0x72, 0x84, 0x44, 0x77, 0x6c, 0x86, 0x4f, 0x5c, 0x6d, 0x67, 0x76, 0x75,
        0x62, 0x63, 0x94, 0xb1, 0x5d, 0x68, 0x8f, 0xaa, 0x58, 0x72, 0x90, 0xa6,
        0x74, 0x5f, 0x76, 0x6f, 0x6e, 0x52, 0x79, 0x5f, 0x58, 0x82, 0x78, 0x5e,
        0x77, 0x93, 0x93, 0x7b, 0x7b, 0xa6, 0xab, 0x76, 0x72, 0x99, 0x99, 0x6f,
        0x78, 0x78, 0x98, 0x8a, 0x72, 0x9a, 0x79, 0x92, 0x7e, 0x80, 0x6d, 0x8e,
        0x5f, 0x70, 0x73, 0x7e, 0x65, 0x67, 0x89, 0x98, 0x6b, 0x78, 0x7b, 0x95,
        0x6b, 0x6a, 0x52, 0x88, 0x6a, 0x6d, 0x41, 0x87, 0x72, 0x65, 0x4c, 0x88,
        0x97, 0x7a, 0x55, 0x5c, 0x68, 0x73, 0x99, 0x68, 0x59, 0x62, 0xc4, 0xb3,
        0x54, 0x71, 0x9f, 0xc0, 0x70, 0x6e, 0x76, 0xa4, 0x5f, 0x5f, 0x8b, 0x7a,
        0x66, 0x76, 0x7a, 0x5c, 0x55, 0x8c, 0x82, 0x53, 0x67, 0xa4, 0xa9, 0x86,
        0x81, 0x9e, 0x9a, 0x75, 0x91, 0x92, 0x85, 0x74, 0x7f, 0x6b, 0x91, 0x84,
        0x7a, 0x98, 0x83, 0x99, 0x77, 0x8a, 0x98, 0x99, 0x6b, 0x70, 0x70, 0x8e,
        0x6d, 0x7b, 0x75, 0x98, 0x5f, 0x87, 0x67, 0xa5, 0x62, 0x74, 0x69, 0xa0,
        0x7f, 0x5c, 0x48, 0x69, 0x85, 0x5c, 0x49, 0x77, 0x88, 0x94, 0x48, 0x4b,
        0x82, 0x5a, 0x7f, 0x4e, 0x5f, 0x5b, 0xab, 0x98, 0x65, 0x5b, 0x93, 0xa0,
        0x6a, 0x68, 0x8d, 0xab, 0x57, 0x5f, 0x8c, 0x83, 0x53, 0x7c, 0x72, 0x64,
        0x5b, 0x83, 0x95, 0x67, 0x88, 0x8c, 0x9b, 0x78, 0x71, 0x9e, 0xb5, 0x6e,
        0x83, 0x91, 0x8b, 0x6a, 0x78, 0x7f, 0xac, 0x7c, 0x7f, 0x84, 0x87, 0x9b,
        0x76, 0x86, 0x73, 0x9b, 0x74, 0x5e, 0x63, 0x93, 0x61, 0x66, 0x6f, 0x94,
        0x7e, 0x68, 0x86, 0x8d, 0x7a, 0x5c, 0x60, 0x7d, 0x62, 0x49, 0x64, 0x76,
        0x6e, 0x70, 0x5a, 0x64, 0x89, 0x88, 0x55, 0x36, 0x76, 0x7b, 0x7d, 0x7f,
        0x53, 0x63, 0xa6, 0x95, 0x5e, 0x54, 0x7f, 0xb1, 0x72, 0x70, 0x83, 0x9a,
        0x5c, 0x52, 0x80, 0x7c, 0x66, 0x69, 0x6b, 0x59, 0x5c, 0x94, 0x81, 0x75,
        0x7f, 0xa9, 0x86, 0x61, 0x87, 0x7e, 0xa7, 0x84, 0x88, 0x6e, 0x8d, 0x75,
        0x6d, 0x65, 0x9d, 0x92, 0x75, 0x7a, 0xa2, 0xa1, 0x83, 0x83, 0x95, 0x93,
        0x6b, 0x5f, 0x94, 0x86, 0x5f, 0x88, 0x67, 0x94, 0x77, 0x75, 0x97, 0xaa,
        0x68, 0x72, 0x55, 0x6e, 0x75, 0x71, 0x4e, 0x85, 0x73, 0x7a, 0x4c, 0x72,
        0x6b, 0x88, 0x3e, 0x4d, 0x70, 0x80, 0x64, 0x57, 0x50, 0x5f, 0x8d, 0xa0,
        0x60, 0x92, 0x93, 0xa8, 0x65, 0x5f, 0x6d, 0x93, 0x68, 0x56, 0x84, 0x81,
        0x57, 0x87, 0x7a, 0x4d, 0x5b, 0x7c, 0x66, 0x68, 0x7b, 0x7c, 0x79, 0x5d,
        0x7e, 0x99, 0x8c, 0x88, 0x9e, 0x92, 0x9f, 0x8b, 0x8f, 0x83, 0x83, 0x7f,
        0x80, 0x87, 0x81, 0x93, 0x8a, 0x8a, 0x62, 0x74, 0x83, 0x6e, 0x66, 0x96,
        0x7f, 0x61, 0x72, 0x96, 0x72, 0x6b, 0x9b, 0x89, 0x78, 0x79, 0x61, 0x7d,
        0x7a, 0x54, 0x6d, 0x8b, 0x62, 0x72, 0x64, 0x66, 0x74, 0x6d, 0x68, 0x5a,
        0x8c, 0x77, 0x7f, 0x67, 0x5d, 0x6b, 0x9f, 0x95, 0x5d, 0x5d, 0xa0, 0xaf,
        0x69, 0x87, 0x96, 0x90, 0x51, 0x55, 0x7d, 0x8c, 0x5d, 0x73, 0x70, 0x4c,
        0x49, 0x81, 0x72, 0x60, 0x67, 0x93, 0x6d, 0x6c, 0x8a, 0x88, 0x98, 0x68,
        0x95, 0x8e, 0x87, 0x87, 0x81, 0x60, 0x87, 0x82, 0x86, 0x80, 0x77, 0x90,
        0x99, 0x76, 0x7a, 0x79, 0x73, 0x83, 0x88, 0x7a, 0x6e, 0x70, 0x5d, 0x92,
        0x78, 0x59, 0x62, 0x76, 0x75, 0x6c, 0x67, 0x6f, 0x7b, 0x84, 0x77, 0x7d,
        0x7e, 0x6d, 0x4e, 0x78, 0x6d, 0x5f, 0x44, 0x65, 0x7c, 0x66, 0x74, 0x88,
        0x38, 0x7a, 0x93, 0x92, 0x60, 0x6c, 0x83, 0x93, 0x69, 0x8e, 0x6f, 0x82,
        0x4f, 0x55, 0x6b, 0x6f, 0x43, 0x8c, 0x5c, 0x4e, 0x2e, 0x8b, 0x6b, 0x58,
        0x76, 0x83, 0x5d, 0x8e, 0x97, 0x74, 0x9f, 0x7b, 0x8b, 0x8f, 0x8b, 0x74,
        0x7c, 0x82, 0x88, 0x65, 0x6f, 0x80, 0x88, 0x71, 0x8c, 0xa2, 0x6f, 0x6a,
        0x89, 0x7e, 0x8b, 0x83, 0x71, 0x60, 0x70, 0x68, 0x78, 0x80, 0x6d, 0x8f,
        0x78, 0x6f, 0x5c, 0x6d, 0x75, 0x5f, 0x73, 0x75, 0x77, 0x73, 0x57, 0x5d,
        0x7d, 0x67, 0x31, 0x4a, 0x72, 0x70, 0x85, 0x6b, 0x55, 0x5d, 0x70, 0x7d,
        0x43, 0x74, 0x71, 0x73, 0x4a, 0x88, 0x55, 0x67, 0x44, 0x5f, 0x57, 0x65,
        0x4e, 0x60, 0x57, 0x5c, 0x42, 0x70, 0x7b, 0x75, 0x40, 0x7a, 0x5c, 0x5c,
        0x80, 0x67, 0x76, 0x82, 0x78, 0x7d, 0x7c, 0x7c, 0x8b, 0x8a, 0x9d, 0x89,
        0x5b, 0x74, 0x60, 0x7e, 0x76, 0x71, 0x5c, 0x51, 0x7a, 0x6e, 0x75, 0x87,
        0x6a, 0x78, 0x8b, 0x90, 0x61, 0x70, 0x6b, 0x69, 0x71, 0x62, 0x60, 0x54,
        0x74, 0x62, 0x49, 0x6e, 0x6e, 0x5f, 0x31, 0x5f, 0x8e, 0x64, 0x56, 0x58,
        0x76, 0x63, 0x7c, 0x80, 0x5c, 0x75, 0x6b, 0x51, 0x8e, 0x5c, 0x6e, 0x73,
        0x52, 0x82, 0x6a, 0x74, 0x88, 0x4d, 0x69, 0x8c, 0x6f, 0x84, 0x73, 0x79,
        0x7f, 0x85, 0x70, 0x49, 0x87, 0x97, 0x5f, 0x55, 0x67, 0x7b, 0x6e, 0x7f,
        0x64, 0x64, 0x5e, 0x68, 0x6a, 0x71, 0x77, 0x7b, 0x5b, 0x6b, 0x6d, 0x67,
        0x7d, 0x86, 0x77, 0x61, 0x6c, 0x59, 0x75, 0x6a, 0x69, 0x68, 0x74, 0x63,
        0x72, 0x6b, 0x6a, 0x5d, 0x56, 0x6f, 0x6a, 0x5b, 0x6b, 0x5b, 0x6e, 0x66,
        0x71, 0x72, 0x57, 0x5c, 0x4c, 0x5d, 0x74, 0x6f, 0x6f, 0x77, 0x62, 0x58,
        0x81, 0x89, 0x64, 0x5c, 0x4c, 0x8d, 0x7c, 0x92, 0x69, 0x78, 0x7a, 0x73,
        0x4f, 0x5a, 0x66, 0x83, 0x76, 0x4c, 0x76, 0x84, 0x7f, 0x66, 0x76, 0x5f,
        0x63, 0x75, 0x7a, 0x56, 0x54, 0x56, 0x66, 0x50, 0x4e, 0x69, 0x7a, 0x62,
        0x6a, 0x51, 0x79, 0x64, 0x59, 0x67, 0x70, 0x64, 0x64, 0x51, 0x68, 0x66,
        0x75, 0x74, 0x77, 0x71, 0x70, 0x92, 0x6e, 0x65, 0x78, 0x64, 0x75, 0x84,
        0x77, 0x59, 0x74, 0x76, 0x74, 0x78, 0x77, 0x82, 0x7f, 0x64, 0x74, 0x70,
        0x98, 0x74, 0x6c, 0x74, 0x6c, 0x79, 0x75, 0x8c, 0x78, 0x7c, 0x6f, 0x5c,
        0x5a, 0x75, 0x7c, 0x78, 0xaa, 0xa5, 0x77, 0x76, 0x79, 0x6f, 0x75, 0x82,
        0x70, 0x61, 0x85, 0x7f, 0x4f, 0x61, 0x6c, 0x74, 0x68, 0x71, 0x7a, 0x5b,
        0x57, 0x87, 0x67, 0x4b, 0x77, 0x6b, 0x6f, 0x6a, 0x7c, 0x84, 0x76, 0x7e,
        0x69, 0x7f, 0x6e, 0x87, 0x8a, 0x61, 0x68, 0x74, 0x88, 0x86, 0x7d, 0x7c,
        0x76, 0x8a, 0x76, 0x88, 0x6a, 0x78, 0x71, 0x80, 0x77, 0x5c, 0x7f, 0x7a,
        0x74, 0x6d, 0x7d, 0x7f, 0x81, 0x58, 0x66, 0x6e, 0x74, 0x6b, 0x6c, 0x7d,
        0x73, 0x7d, 0x73, 0x74, 0x8d, 0x93, 0x87, 0x72, 0x65, 0x95, 0x7e, 0x85,
        0x97, 0x8c, 0x6f, 0x6d, 0x86, 0x7c, 0x83, 0x71, 0x63, 0x99, 0x5d, 0x64,
        0x62, 0x58, 0x7c, 0x4b, 0x74, 0x75, 0x6f, 0x29, 0x5c, 0x62, 0x6f, 0x67,
        0x61, 0x7b, 0x5e, 0x7a, 0x59, 0x6c, 0x73, 0x83, 0x5f, 0x65, 0x86, 0x8b,
        0x63, 0x7b, 0x74, 0x87, 0x75, 0x94, 0x81, 0x7c, 0x73, 0x6d, 0x7b, 0x5c,
        0x90, 0x8a, 0x7f, 0x8b, 0x65, 0x95, 0x81, 0x7d, 0x6d, 0x78, 0x89, 0x71,
        0x50, 0x48, 0x8b, 0x63, 0x73, 0x6b, 0x7f, 0x6d, 0x6c, 0x89, 0x7b, 0x97,
        0x74, 0x97, 0x60, 0x69, 0x74, 0x99, 0x6c, 0x54, 0x8a, 0xa9, 0x88, 0x70,
        0x7d, 0x9a, 0x75, 0x5d, 0x6a, 0x8d, 0x69, 0x51, 0x81, 0x82, 0x7c, 0x35,
        0x76, 0x78, 0x77, 0x25, 0x5a, 0x69, 0x5a, 0x3e, 0x49, 0x6d, 0x6f, 0x7a,
        0x63, 0x6f, 0x7e, 0x8f, 0x58, 0x63, 0x70, 0x85, 0x69, 0x78, 0x74, 0x88,
        0x6a, 0x59, 0x78, 0x8d, 0x7e, 0x6d, 0x71, 0x6d, 0x69, 0x6c, 0x6c, 0x69,
        0x7a, 0x6e, 0x81, 0x8b, 0x68, 0x61, 0x97, 0x7b, 0x59, 0x6c, 0x85, 0x72,
        0x6b, 0x64, 0x76, 0x75, 0x70, 0x81, 0x8b, 0x75, 0x6f, 0x70, 0x7a, 0x77,
        0x62, 0x97, 0x82, 0x64, 0x8e, 0xb2, 0x63, 0x5d, 0x7b, 0xa1, 0x72, 0x5e,
        0x75, 0x98, 0x79, 0x50, 0x76, 0x64, 0x5c, 0x29, 0x6d, 0x74, 0x55, 0x18,
        0x53, 0x5b, 0x71, 0x55, 0x59, 0x68, 0x65, 0x95, 0x74, 0x6d, 0x72, 0x97,
        0x6a, 0x8a, 0x6d, 0x8c, 0x65, 0x3c, 0x6f, 0x8e, 0x7d, 0x78, 0x68, 0x82,
        0x7d, 0x85, 0x75, 0x63, 0x77, 0x68, 0x86, 0x81, 0x58, 0x7e, 0x82, 0x69,
        0x59, 0x4e, 0x80, 0x74, 0x37, 0x71, 0x9c, 0x9a, 0x86, 0x65, 0x7d, 0x78,
        0x72, 0x77, 0x7c, 0x65, 0x66, 0x6b, 0x64, 0x81, 0x5b, 0x95, 0x56, 0x55,
        0x68, 0xab, 0x6d, 0x49, 0x71, 0x88, 0x74, 0x63, 0x86, 0x7e, 0x6a, 0x55,
        0x79, 0x8b, 0x6e, 0x34, 0x51, 0x7c, 0x59, 0x10, 0x5e, 0x78, 0x5b, 0x50,
        0x65, 0x48, 0x65, 0x97, 0x6d, 0x67, 0x7d, 0xaf, 0x71, 0x69, 0x77, 0x7a,
        0x5e, 0x6a, 0x50, 0x94, 0x69, 0x53, 0x62, 0x75, 0x6f, 0x82, 0x5f, 0x56,
        0x62, 0x63, 0x76, 0x83, 0x6e, 0x6a, 0x8a, 0x80, 0x62, 0x73, 0x95, 0x92,
        0x49, 0x5e, 0xa8, 0x81, 0x66, 0x4d, 0x89, 0x6d, 0x76, 0x7e, 0x57, 0x9a,
        0x56, 0x6e, 0x7c, 0x71, 0x61, 0x9f, 0x6c, 0x51, 0x5d, 0xae, 0x77, 0x40,
        0x6e, 0x9e, 0x83, 0x4b, 0x6f, 0xa6, 0x67, 0x57, 0x73, 0x9b, 0x6c, 0x2e,
        0x63, 0x77, 0x44, 0x25, 0x5b, 0x6e, 0x40, 0x56, 0x5f, 0x53, 0x65, 0x95,
        0x69, 0x47, 0x68, 0xa4, 0x6f, 0x84, 0x69, 0x7a, 0x7d, 0x5f, 0x60, 0x8e,
        0x80, 0x5f, 0x5d, 0x73, 0x7d, 0x65, 0x6e, 0x56, 0x65, 0x90, 0x80, 0x62,
        0x78, 0x7e, 0x87, 0x6e, 0x58, 0x66, 0xab, 0x98, 0x64, 0x56, 0x90, 0x97,
        0x5a, 0x5c, 0x7f, 0x7c, 0x5f, 0x59, 0x92, 0x59, 0x45, 0x5b, 0x7c, 0x69,
        0x59, 0x95, 0x6c, 0x4d, 0x70, 0xa9, 0x71, 0x2c, 0x78, 0x9e, 0x84, 0x60,
        0x82, 0x85, 0x59, 0x59, 0x7a, 0x69, 0x60, 0x2a, 0x63, 0x66, 0x4c, 0x23,
        0x5b, 0x7b, 0x53, 0x6c, 0x62, 0x4d, 0x5f, 0xa3, 0x68, 0x51, 0x6d, 0xab,
        0x6a, 0x6e, 0x53, 0x70, 0x85, 0x55, 0x52, 0x95, 0x7a, 0x57, 0x6c, 0x5e,
        0x7f, 0x7a, 0x5e, 0x70, 0x77, 0x7b, 0x7c, 0x67, 0x72, 0x61, 0x9f, 0x77,
        0x5d, 0x6b, 0x9d, 0x76, 0x6d, 0x5c, 0xa2, 0x83, 0x5c, 0x53, 0x92, 0x88,
        0x72, 0x76, 0x64, 0x7f, 0x57, 0x52, 0x7a, 0x66, 0x5b, 0x87, 0x83, 0x3b,
        0x82, 0xb3, 0x5e, 0x3c, 0x6b, 0xa2, 0x84, 0x62, 0x67, 0x81, 0x72, 0x54,
        0x93, 0x7c, 0x5b, 0x30, 0x75, 0x95, 0x45, 0x16, 0x47, 0x66, 0x51, 0x52,
        0x50, 0x55, 0x66, 0xb6, 0x77, 0x3f, 0x6b, 0xab, 0x6c, 0x6a, 0x6c, 0x7d,
        0x7b, 0x5d, 0x6a, 0x81, 0x6a, 0x69, 0x50, 0x6b, 0x86, 0x8d, 0x72, 0x62,
        0x73, 0x8e, 0x91, 0x7c, 0x62, 0x7a, 0x80, 0x71, 0x76, 0x64, 0x92, 0x7f,
        0x5c, 0x4f, 0xab, 0x8e, 0x65, 0x6f, 0x95, 0x7b, 0x56, 0x68, 0x70, 0x78,
        0x40, 0x45, 0x7e, 0x77, 0x5f, 0x7a, 0x66, 0x3e, 0x87, 0xc6, 0x78, 0x32,
        0x71, 0xb5, 0x8b, 0x59, 0x84, 0x85, 0x85, 0x5f, 0x8b, 0x85, 0x4e, 0x26,
        0x68, 0x6c, 0x3a, 0x08, 0x4f, 0x64, 0x5f, 0x59, 0x65, 0x5f, 0x61, 0xab,
        0x76, 0x2b, 0x76, 0xa0, 0x63, 0x6a, 0x6c, 0x63, 0x79, 0x57, 0x68, 0x8f,
        0x83, 0x50, 0x53, 0x76, 0x76, 0x8b, 0x79, 0x59, 0x75, 0x79, 0x85, 0x54,
        0x88, 0x6b, 0x8e, 0x58, 0x75, 0x48, 0x97, 0x97, 0x68, 0x66, 0xc0, 0x76,
        0x63, 0x8c, 0x87, 0x87, 0x59, 0x5a, 0x74, 0x76, 0x4c, 0x52, 0x81, 0x5c,
        0x50, 0x90, 0x6d, 0x31, 0x77, 0xdc, 0x7d, 0x42, 0x78, 0xac, 0x88, 0x5f,
        0x6f, 0x87, 0x87, 0x60, 0x88, 0x8c, 0x5c, 0x34, 0x7b, 0x6e, 0x3f, 0x1b,
        0x4d, 0x5c, 0x3d, 0x69, 0x6a, 0x68, 0x73, 0xa0, 0x6d, 0x60, 0x76, 0xb7,
        0x6c, 0x61, 0x76, 0x6b, 0x69, 0x69, 0x6d, 0x8c, 0x81, 0x79, 0x6c, 0x7b,
        0x87, 0x82, 0x78, 0x48, 0x76, 0x86, 0x7b, 0x5e, 0x7d, 0x74, 0x8d, 0x66,
        0x7e, 0x69, 0xa4, 0x8b, 0x5f, 0x47, 0xbd, 0x76, 0x49, 0x80, 0x81, 0x8c,
        0x51, 0x60, 0x4a, 0x7a, 0x41, 0x4f, 0x78, 0x66, 0x58, 0x8b, 0x86, 0x39,
        0x82, 0xb2, 0x6e, 0x42, 0x70, 0xb4, 0x6b, 0x68, 0x78, 0xa4, 0x72, 0x79,
        0x8b, 0x90, 0x59, 0x46, 0x6c, 0x7c, 0x46, 0x31, 0x56, 0x66, 0x42, 0x60,
        0x52, 0x56, 0x5a, 0xa3, 0x82, 0x4b, 0x7f, 0xb1, 0x76, 0x58, 0x5a, 0x57,
        0x95, 0x6b, 0x67, 0x8a, 0x86, 0x5f, 0x6a, 0x6e, 0x71, 0x7f, 0x66, 0x68,
        0x70, 0x70, 0x73, 0x62, 0x7b, 0x6e, 0x85, 0x65, 0x7f, 0x7f, 0xa0, 0x80,
        0x6f, 0x52, 0xa8, 0x6d, 0x4b, 0x65, 0x90, 0x8a, 0x57, 0x6d, 0x81, 0x84,
        0x4b, 0x57, 0x6c, 0x6d, 0x45, 0x98, 0x7a, 0x49, 0x7a, 0xc0, 0x7d, 0x2e,
        0x7e, 0xba, 0x6e, 0x54, 0x7d, 0xa2, 0x80, 0x65, 0x85, 0x9b, 0x68, 0x56,
        0x78, 0x7e, 0x32, 0x19, 0x4b, 0x60, 0x4c, 0x5a, 0x59, 0x3e, 0x71, 0x9c,
        0x65, 0x44, 0x73, 0xb0, 0x74, 0x65, 0x62, 0x6e, 0x83, 0x6d, 0x7b, 0x88,
        0x90, 0x64, 0x69, 0x8b, 0x91, 0x78, 0x6c, 0x68, 0x7d, 0x7a, 0x92, 0x6e,
        0x7f, 0x88, 0x86, 0x77, 0x89, 0x91, 0x97, 0x84, 0x64, 0x53, 0xad, 0x71,
        0x44, 0x41, 0x8f, 0x92, 0x68, 0x70, 0x83, 0x72, 0x3c, 0x62, 0x77, 0x7e,
        0x64, 0xaf, 0x61, 0x44, 0x85, 0xb7, 0x72, 0x35, 0x6d, 0xb2, 0x93, 0x61,
        0x77, 0x92, 0x84, 0x7e, 0x82, 0xa1, 0x59, 0x57, 0x7a, 0x9a, 0x3b, 0x13,
        0x5a, 0x55, 0x48, 0x4f, 0x53, 0x37, 0x79, 0xa9, 0x65, 0x3f, 0x6f, 0xc2,
        0x83, 0x5c, 0x64, 0x5f, 0x7d, 0x5f, 0x6c, 0x76, 0x82, 0x65, 0x5d, 0x8a,
        0x7f, 0x96, 0x81, 0x51, 0x6d, 0x75, 0x95, 0x67, 0x6a, 0x66, 0x8f, 0x6a,
        0x83, 0x88, 0xad, 0x5f, 0x74, 0x49, 0xb3, 0x68, 0x3a, 0x3f, 0x94, 0x71,
        0x72, 0x75, 0x7d, 0x6d, 0x46, 0x5f, 0x8d, 0x77, 0x56, 0x9b, 0x6c, 0x45,
        0x82, 0xbb, 0x79, 0x39, 0x79, 0x9d, 0x88, 0x65, 0x7d, 0x82, 0x72, 0x78,
        0x7e, 0x8a, 0x66, 0x5a, 0x85, 0x9f, 0x20, 0x33, 0x5c, 0x56, 0x4a, 0x5e,
        0x52, 0x56, 0x77, 0xa2, 0x6f, 0x58, 0x89, 0xb0, 0x80, 0x76, 0x6d, 0x60,
        0x7d, 0x65, 0x75, 0x72, 0x70, 0x6f, 0x67, 0x81, 0x85, 0x80, 0x71, 0x65,
        0x81, 0x7f, 0x85, 0x7e, 0x7e, 0x86, 0x9b, 0x73, 0x90, 0x70, 0xb1, 0x7a,
        0x62, 0x4d, 0xb9, 0x71, 0x52, 0x66, 0x90, 0x90, 0x5f, 0x69, 0x6e, 0x7b,
        0x2c, 0x55, 0x9d, 0x97, 0x5e, 0x98, 0x73, 0x4a, 0x8e, 0xc0, 0x6e, 0x32,
        0x78, 0xb4, 0xa6, 0x7a, 0x6d, 0x9e, 0x7e, 0x7f, 0x95, 0x85, 0x71, 0x5d,
        0x84, 0x87, 0x30, 0x2e, 0x62, 0x50, 0x4b, 0x56, 0x50, 0x4d, 0x7c, 0xa1,
        0x65, 0x46, 0x80, 0xb2, 0x60, 0x45, 0x71, 0x78, 0x7f, 0x5e, 0x64, 0x84,
        0x81, 0x5d, 0x6f, 0x8d, 0x85, 0x80, 0x6b, 0x7f, 0x7d, 0x75, 0x84, 0x74,
        0x76, 0x7b, 0x9f, 0x63, 0x82, 0x80, 0x9e, 0x67, 0x6f, 0x5b, 0xb0, 0x7e,
        0x44, 0x62, 0x92, 0x96, 0x53, 0x5b, 0x5a, 0x81, 0x26, 0x4a, 0x75, 0x8f,
        0x5b, 0xab, 0x53, 0x42, 0x57, 0xb4, 0x7c, 0x4b, 0x91, 0x8d, 0x8c, 0x6e,
        0x8c, 0x92, 0x7b, 0x97, 0x82, 0x74, 0x6a, 0x5f, 0x80, 0x7a, 0x3a, 0x26,
        0x59, 0x77, 0x54, 0x54, 0x3a, 0x63, 0x6f, 0x9d, 0x52, 0x49, 0x90, 0xbe,
        0x56, 0x6f, 0x86, 0x6f, 0x83, 0x6d, 0x58, 0x7d, 0x77, 0x59, 0x65, 0x84,
        0x83, 0x82, 0x7d, 0x53, 0x81, 0x80, 0x97, 0x76, 0x6e, 0x6f, 0x89, 0x6e,
        0x7d, 0x90, 0x7d, 0x82, 0x68, 0x57, 0xb3, 0x8a, 0x55, 0x72, 0xa5, 0x9c,
        0x51, 0x69, 0x70, 0x7f, 0x1b, 0x5d, 0x93, 0x79, 0x58, 0xa3, 0x78, 0x6f,
        0x75, 0xad, 0x6d, 0x46, 0x6c, 0xa0, 0xa5, 0x93, 0x84, 0x93, 0x8f, 0xa0,
        0x93, 0x8f, 0x5b, 0x59, 0x7c, 0x7f, 0x46, 0x31, 0x52, 0x5f, 0x45, 0x59,
        0x54, 0x6d, 0x76, 0x99, 0x54, 0x4e, 0x6a, 0xad, 0x6e, 0x76, 0x6a, 0x71,
        0x6f, 0x69, 0x7b, 0x81, 0x7c, 0x5b, 0x7f, 0x6f, 0x70, 0x6d, 0x66, 0x69,
        0x72, 0x76, 0x7e, 0x79, 0x6b, 0x72, 0x8f, 0x96, 0x8c, 0x6a, 0x81, 0x57,
        0x77, 0x62, 0xbb, 0x81, 0x54, 0x6e, 0x9c, 0x90, 0x69, 0x58, 0x48, 0x84,
        0x24, 0x5f, 0x91, 0x78, 0x52, 0x76, 0x62, 0x45, 0x67, 0xaf, 0x7e, 0x4d,
        0x61, 0xa5, 0x9d, 0x80, 0x6b, 0x95, 0x79, 0x9e, 0x8e, 0x9b, 0x6f, 0x5b,
        0x81, 0x75, 0x40, 0x3a, 0x3d, 0x68, 0x4d, 0x55, 0x3a, 0x36, 0x63, 0x8a,
        0x50, 0x4d, 0x7f, 0x9a, 0x55, 0x57, 0x83, 0x89, 0x63, 0x48, 0x7f, 0x96,
        0x85, 0x4c, 0x68, 0x8c, 0x72, 0x7d, 0x62, 0x68, 0x88, 0x6c, 0x9d, 0x81,
        0x76, 0x67, 0xa9, 0x74, 0x64, 0x66, 0x92, 0x7b, 0x62, 0x6e, 0xcd, 0x80,
        0x62, 0x7a, 0xb3, 0x82, 0x54, 0x88, 0x7e, 0x81, 0x0f, 0x4d, 0x96, 0x83,
        0x35, 0x66, 0x65, 0x59, 0x66, 0xba, 0x6d, 0x5c, 0x6c, 0x94, 0x93, 0x62,
        0x8b, 0x9f, 0x89, 0xa9, 0x97, 0x7d, 0x5f, 0x6a, 0x7c, 0x53, 0x47, 0x3b,
        0x49, 0x56, 0x47, 0x4b, 0x2e, 0x3b, 0x65, 0x85, 0x43, 0x63, 0x79, 0xa0,
        0x4b, 0x60, 0x61, 0x90, 0x6f, 0x79, 0x85, 0x89, 0x78, 0x64, 0x82, 0x8d,
        0x70, 0x7d, 0x8f, 0x60, 0x80, 0x74, 0x80, 0x8f, 0x79, 0x80, 0x91, 0x83,
        0x89, 0x69, 0x89, 0x7e, 0x69, 0x5c, 0xb6, 0x9a, 0x64, 0x4c, 0x9a, 0x98,
        0x47, 0x82, 0x91, 0x83, 0x17, 0x4e, 0x83, 0x63, 0x2f, 0x95, 0x81, 0x5c,
        0x67, 0xaa, 0x6e, 0x5b, 0x7a, 0x7a, 0xa1, 0x79, 0x79, 0x88, 0xaa, 0x9f,
        0x9c, 0x95, 0x84, 0x4b, 0x87, 0x75, 0x4b, 0x40, 0x4c, 0x56, 0x47, 0x58,
        0x40, 0x52, 0x63, 0xa2, 0x4b, 0x5e, 0x55, 0x80, 0x59, 0x3c, 0x5b, 0x92,
        0x65, 0x57, 0x7d, 0x99, 0x85, 0x45, 0x77, 0x8e, 0x8c, 0x68, 0x7c, 0x6f,
        0x76, 0x75, 0x87, 0x77, 0x7d, 0x79, 0x9b, 0x88, 0x79, 0x5d, 0xaa, 0x7b,
        0x54, 0x81, 0xbd, 0x95, 0x64, 0x5d, 0xb5, 0xa1, 0x5e, 0x78, 0x73, 0x66,
        0x0d, 0x76, 0x81, 0x8a, 0x37, 0x81, 0x84, 0x3c, 0x5e, 0x8d, 0x8c, 0x45,
        0x60, 0x90, 0x79, 0x88, 0x8a, 0x80, 0xbb, 0x9d, 0xa4, 0x70, 0x58, 0x87,
        0x7c, 0x62, 0x4e, 0x35, 0x4f, 0x48, 0x55, 0x44, 0x2c, 0x68, 0x80, 0xac,
        0x3d, 0x3e, 0x7e, 0x89, 0x60, 0x72, 0x6a, 0x78, 0x6e, 0x4f, 0x9d, 0x88,
        0x76, 0x6f, 0x79, 0x80, 0x88, 0x61, 0x61, 0x7b, 0x73, 0x58, 0x96, 0x4e,
        0x76, 0x6e, 0x8c, 0x96, 0x72, 0x8e, 0xbf, 0x7a, 0x7f, 0x7c, 0xa9, 0x96,
        0x4e, 0x67, 0xad, 0xa6, 0x54, 0x7d, 0x6d, 0x72, 0x0b, 0x77, 0x8e, 0x83,
        0x3c, 0x5e, 0x79, 0x73, 0x60, 0x9f, 0x6a, 0x55, 0x6e, 0x73, 0x8f, 0x77,
        0x79, 0x74, 0xa4, 0x8f, 0x98, 0x70, 0x68, 0x77, 0xa2, 0x62, 0x67, 0x66,
        0x4f, 0x62, 0x8e, 0x5d, 0x20, 0x53, 0x95, 0xa0, 0x45, 0x59, 0x6a, 0x9b,
        0x4b, 0x77, 0x6c, 0x4c, 0x75, 0x61, 0x84, 0x7c, 0x86, 0x5a, 0x7b, 0x74,
        0x7a, 0x60, 0x71, 0x72, 0x70, 0x87, 0x64, 0x77, 0x69, 0x76, 0x8a, 0x85,
        0x5c, 0x70, 0xb3, 0x98, 0x4d, 0x5e, 0x9f, 0x7d, 0x79, 0x6e, 0xa0, 0x8b,
        0x32, 0x62, 0x6a, 0x80, 0x0d, 0x4f, 0x89, 0x5e, 0x1e, 0x55, 0x4d, 0x48,
        0x37, 0x64, 0x58, 0x72, 0x5b, 0x70, 0x72, 0x65, 0x82, 0x7e, 0x74, 0x8d,
        0xa4, 0x9a, 0x7b, 0x7c, 0x8d, 0x81, 0x78, 0x61, 0x5e, 0x4a, 0x73, 0x6f,
        0x1a, 0x58, 0x82, 0x88, 0x56, 0x64, 0x6f, 0x6b, 0x46, 0x6e, 0x70, 0x4c,
        0x58, 0x58, 0x6e, 0x70, 0x7f, 0x4a, 0x53, 0x5c, 0x70, 0x7b, 0x6c, 0x73,
        0x60, 0x78, 0x67, 0x59, 0x70, 0x83, 0x86, 0x62, 0x6b, 0x88, 0xa0, 0x8b,
        0x58, 0x9a, 0x82, 0x8d, 0x84, 0x89, 0xc4, 0x9c, 0x6e, 0x6d, 0x58, 0x55,
        0x4a, 0x7e, 0x6d, 0x7e, 0x49, 0x71, 0x6d, 0x7e, 0x69, 0x99, 0x71, 0x6c,
        0x7c, 0x5c, 0x6d, 0x60, 0x92, 0x89, 0x76, 0x7c, 0x87, 0x6f, 0x74, 0x6a,
        0x90, 0x6c, 0x58, 0x4f, 0x8d, 0x6c, 0x6f, 0x64, 0x79, 0x60, 0x65, 0x7e,
        0x67, 0x73, 0x75, 0x69, 0x5e, 0x7a, 0x6e, 0x72, 0x84, 0x48, 0x7c, 0x67,
        0x6e, 0x78, 0x6d, 0x5e, 0x67, 0x5a, 0x6f, 0x68, 0x79, 0x8d, 0x5e, 0x7e,
        0x73, 0x92, 0x6c, 0x6c, 0x67, 0x6d, 0x5f, 0x6b, 0x76, 0x7b, 0x49, 0x4f,
        0x78, 0x87, 0x6e, 0x5d, 0x6e, 0x75, 0x82, 0x6f, 0x6d, 0x7f, 0x69, 0x52,
        0x5b, 0x68, 0x78, 0x65, 0x6e, 0x53, 0x7c, 0x76, 0x68, 0x7b, 0x66, 0x79,
        0x6d, 0x74, 0x6e, 0x78, 0x83, 0x5d, 0x7d, 0x60, 0x7a, 0x83, 0x79, 0x52,
        0x83, 0x56, 0x64, 0x61, 0x60, 0x6e, 0x7d, 0x6f, 0x8b, 0x88, 0x74, 0x68,
        0x5f, 0x7f, 0x6c, 0x55, 0x4a, 0x66, 0x61, 0x6a, 0x96, 0x77, 0x73, 0x62,
        0x6c, 0x6e, 0x6b, 0x54, 0x6e, 0x88, 0x68, 0x5c, 0x7b, 0x67, 0x6c, 0x4d,
        0x5e, 0x63, 0x6a, 0x5b, 0x5f, 0x6a, 0x72, 0x64, 0x89, 0x67, 0x62, 0x6e,
        0x6c, 0x78, 0x8c, 0x77, 0x6d, 0x8e, 0x78, 0x6d, 0x5d, 0x71, 0x8b, 0x7b,
        0x86, 0x6e, 0x7e, 0x98, 0x6d, 0x72, 0x7e, 0x95, 0x76, 0x83, 0x90, 0x9a,
        0x6c, 0x46, 0x70, 0xa3, 0x8b, 0x54, 0x81, 0x87, 0x65, 0x75, 0x5f, 0x7a,
        0x6a, 0x89, 0x70, 0x79, 0x7d, 0x77, 0x73, 0x7c, 0x75, 0x4b, 0x65, 0x84,
        0x6c, 0x5b, 0x68, 0x8a, 0x65, 0x73, 0x7b, 0x7c, 0x7b, 0x54, 0x69, 0x88,
        0x63, 0x73, 0x64, 0x6e, 0x68, 0x6f, 0x73, 0x60, 0x5d, 0x55, 0x70, 0x6c,
        0x67, 0x7c, 0x64, 0x64, 0x74, 0x8d, 0x6a, 0x79, 0x76, 0x88, 0x62, 0x70,
        0x8b, 0x73, 0x94, 0x87, 0x65, 0x76, 0x97, 0x9e, 0x6d, 0x65, 0x7e, 0x96,
        0x60, 0x4d, 0x98, 0x95, 0x72, 0x73, 0x7b, 0x9b, 0x53, 0x7b, 0x82, 0xac,
        0x79, 0x7e, 0x7e, 0x93, 0x6b, 0x5f, 0x77, 0xaa, 0x73, 0x73, 0x65, 0x8c,
        0x71, 0x7e, 0x75, 0x74, 0x65, 0x79, 0x80, 0x7c, 0x92, 0x7e, 0x77, 0x8e,
        0x77, 0x74, 0x80, 0x7d, 0x5e, 0x6a, 0x6c, 0x77, 0x5f, 0x64, 0x69, 0x83,
        0x6e, 0x74, 0x76, 0x7e, 0x5e, 0x7b, 0x6e, 0x65, 0x56, 0x5e, 0x79, 0x5a,
        0x65, 0x7a, 0x79, 0x66, 0x6f, 0x9a, 0x87, 0x52, 0x8f, 0x70, 0x73, 0x78,
        0x7a, 0x5f, 0x8d, 0x7f, 0x6e, 0x6b, 0xa7, 0x97, 0x6d, 0x69, 0x96, 0x8e,
        0x6a, 0x50, 0x8b, 0xa9, 0x76, 0x54, 0x95, 0xc6, 0x76, 0x5c, 0x89, 0xbe,
        0x74, 0x6b, 0x69, 0x96, 0x82, 0x6e, 0x78, 0x6d, 0x74, 0x6b, 0x76, 0x5f,
        0x6b, 0x72, 0x6d, 0x6b, 0x90, 0x78, 0x78, 0x7c, 0x77, 0x90, 0x74, 0x80,
        0x72, 0x5c, 0x69, 0x61, 0x5e, 0x5d, 0x53, 0x59, 0x6f, 0x69, 0x64, 0x71,
        0x72, 0x59, 0x78, 0x5f, 0x6f, 0x5d, 0x66, 0x48, 0x86, 0x6e, 0x69, 0x6e,
        0x76, 0x80, 0x7d, 0x68, 0x9d, 0x9f, 0x90, 0x81, 0x6c, 0x6a, 0xab, 0x8d,
        0x8e, 0x4a, 0x91, 0xa7, 0x78, 0x56, 0x8f, 0x94, 0x7c, 0x4c, 0x99, 0xb5,
        0x67, 0x3e, 0x82, 0xba, 0x6f, 0x4c, 0x81, 0xc4, 0x72, 0x66, 0x8e, 0xa6,
        0x8c, 0x7a, 0x69, 0x72, 0x73, 0x76, 0x5e, 0x54, 0x68, 0x89, 0x6e, 0x5b,
        0x8f, 0x66, 0x73, 0x6a, 0x86, 0x81, 0x71, 0x69, 0x7a, 0x80, 0x63, 0x57,
        0x6d, 0x8a, 0x64, 0x61, 0x5c, 0x82, 0x5f, 0x55, 0x77, 0x7a, 0x4f, 0x59,
        0x59, 0x48, 0x61, 0x72, 0x63, 0x7a, 0x6f, 0x6e, 0x7a, 0x85, 0x67, 0x5c,
        0x90, 0x97, 0x82, 0x6e, 0x61, 0x6e, 0x94, 0x7c, 0x5f, 0x41, 0xa4, 0xa2,
        0x70, 0x57, 0xa3, 0x94, 0x84, 0x34, 0x97, 0xbb, 0x6d, 0x46, 0x9d, 0xd7,
        0x59, 0x53, 0x92, 0xcb, 0x80, 0x71, 0x83, 0xa2, 0x89, 0x8a, 0x64, 0x58,
        0x73, 0x76, 0x6a, 0x4f, 0x73, 0x7e, 0x68, 0x49, 0x67, 0x8e, 0x64, 0x5a,
        0x5d, 0x8a, 0x70, 0x64, 0x6d, 0x7c, 0x5d, 0x4d, 0x60, 0x70, 0x5b, 0x5b,
        0x6e, 0x58, 0x6a, 0x69, 0x7a, 0x73, 0x5b, 0x66, 0x5b, 0x6b, 0x65, 0x61,
        0x77, 0x70, 0x72, 0x5e, 0x7b, 0x8d, 0x64, 0x78, 0x8d, 0xb0, 0x9b, 0x51,
        0x69, 0x73, 0xa4, 0x72, 0x50, 0x52, 0xb0, 0xa4, 0x6f, 0x63, 0xa6, 0x77,
        0x7f, 0x5e, 0x90, 0xb1, 0x68, 0x39, 0xb0, 0xd9, 0x67, 0x2b, 0x8d, 0xdf,
        0x95, 0x51, 0x67, 0xae, 0x7b, 0x8b, 0x68, 0x47, 0x6c, 0x5c, 0x5c, 0x3b,
        0x6d, 0x87, 0x68, 0x56, 0x85, 0x83, 0x6c, 0x5c, 0x79, 0x8d, 0x6c, 0x61,
        0x83, 0x7c, 0x64, 0x4e, 0x64, 0x60, 0x5e, 0x54, 0x79, 0x5f, 0x61, 0x5b,
        0x73, 0x80, 0x72, 0x6d, 0x70, 0x57, 0x48, 0x72, 0x57, 0x5c, 0x64, 0x6d,
        0x65, 0x7f, 0x8b, 0x83, 0x7d, 0xad, 0x9e, 0x4c, 0x65, 0x6e, 0xa5, 0x6c,
        0x62, 0x4a, 0xad, 0x8e, 0x72, 0x71, 0xb1, 0x86, 0x80, 0x67, 0x8b, 0xa6,
        0x6c, 0x30, 0xa9, 0xc2, 0x6a, 0x2b, 0x94, 0xcc, 0x94, 0x64, 0x75, 0xbc,
        0x79, 0x79, 0x5f, 0x4c, 0x6b, 0x72, 0x65, 0x3d, 0x71, 0x57, 0x6d, 0x55,
        0x78, 0x86, 0x61, 0x55, 0x68, 0x80, 0x7a, 0x4e, 0x7e, 0x6d, 0x58, 0x57,
        0x7e, 0x5d, 0x59, 0x51, 0x77, 0x5e, 0x67, 0x63, 0x6b, 0x8b, 0x5c, 0x5c,
        0x80, 0x5f, 0x4a, 0x57, 0x6d, 0x9a, 0x6d, 0x76, 0x7e, 0x8e, 0x65, 0x57,
        0x90, 0x9e, 0x93, 0x3e, 0x5e, 0x70, 0xb2, 0x68, 0x66, 0x46, 0x9a, 0xa0,
        0x50, 0x67, 0x9d, 0x81, 0x65, 0x40, 0x9f, 0xa4, 0x6d, 0x2f, 0xa2, 0xaf,
        0x80, 0x54, 0x97, 0xb6, 0x7e, 0x45, 0x88, 0xa1, 0x7a, 0x5e, 0x5c, 0x4c,
        0x76, 0x72, 0x63, 0x33, 0x5f, 0x5b, 0x76, 0x77, 0x6b, 0x92, 0x7b, 0x50,
        0x5e, 0x72, 0x64, 0x56, 0x7c, 0x8f, 0x70, 0x65, 0x72, 0x69, 0x6d, 0x67,
        0x69, 0x63, 0x5c, 0x56, 0x88, 0x58, 0x5a, 0x70, 0x6f, 0x5a, 0x4e, 0x65,
        0x6d, 0x57, 0x73, 0x5a, 0x5e, 0x7d, 0x77, 0x6d, 0x84, 0x96, 0x96, 0x54,
        0x61, 0x68, 0xab, 0x7b, 0x5c, 0x55, 0xac, 0x94, 0x5b, 0x5a, 0xae, 0x84,
        0x84, 0x55, 0xaa, 0x9c, 0x65, 0x33, 0x91, 0xbe, 0x71, 0x16, 0x90, 0xbb,
        0x81, 0x44, 0x94, 0xb6, 0x8c, 0x87, 0x5c, 0x5a, 0x85, 0x51, 0x70, 0x2d,
        0x6e, 0x57, 0x88, 0x6a, 0x67, 0x82, 0x79, 0x4a, 0x6f, 0x64, 0x69, 0x51,
        0x6f, 0x74, 0x77, 0x56, 0x6e, 0x58, 0x6b, 0x60, 0x80, 0x5e, 0x62, 0x55,
        0x84, 0x5e, 0x5b, 0x6a, 0x7c, 0x5e, 0x59, 0x43, 0x91, 0x66, 0x5d, 0x62,
        0x65, 0x7f, 0x5f, 0x71, 0x82, 0x8f, 0x93, 0x4a, 0x53, 0x8a, 0xac, 0x6c,
        0x50, 0x5f, 0xb9, 0xa3, 0x62, 0x61, 0xab, 0x86, 0x6e, 0x4c, 0xae, 0xa8,
        0x65, 0x31, 0x9d, 0xb8, 0x84, 0x0a, 0x9f, 0xcc, 0x89, 0x42, 0x78, 0xbc,
        0x86, 0x70, 0x75, 0x4d, 0x84, 0x83, 0x71, 0x3d, 0x6a, 0x49, 0x8e, 0x7c,
        0x4d, 0x8c, 0x75, 0x55, 0x69, 0x75, 0x80, 0x6e, 0x77, 0x6c, 0x70, 0x6b,
        0x69, 0x6e, 0x71, 0x5c, 0x7b, 0x7b, 0x6f, 0x4a, 0x7f, 0x53, 0x51, 0x75,
        0x6f, 0x67, 0x52, 0x49, 0x83, 0x6b, 0x53, 0x67, 0x5d, 0x85, 0x66, 0x7d,
        0x8c, 0x98, 0x8f, 0x52, 0x59, 0x6b, 0xc8, 0x80, 0x5b, 0x3c, 0xa6, 0x95,
        0x50, 0x63, 0x94, 0x90, 0x6b, 0x6c, 0xa1, 0xac, 0x63, 0x2c, 0x94, 0xbe,
        0x66, 0x18, 0xa7, 0xd4, 0x82, 0x49, 0x81, 0xb5, 0x79, 0x72, 0x63, 0x4f,
        0x8d, 0x64, 0x6b, 0x35, 0x73, 0x5f, 0x6b, 0x62, 0x7a, 0x76, 0x7f, 0x53,
        0x6b, 0x71, 0x85, 0x4d, 0x6d, 0x58, 0x66, 0x5b, 0x75, 0x65, 0x68, 0x60,
        0x7a, 0x67, 0x6d, 0x51, 0x84, 0x5b, 0x61, 0x57, 0x78, 0x5e, 0x3d, 0x4a,
        0x55, 0x67, 0x5c, 0x5a, 0x65, 0x86, 0x76, 0x76, 0x7f, 0x96, 0x8c, 0x4e,
        0x41, 0x5f, 0xb1, 0x82, 0x49, 0x53, 0xb7, 0x89, 0x68, 0x6a, 0x9a, 0x7a,
        0x83, 0x57, 0xa6, 0xa9, 0x6a, 0x3b, 0xa8, 0xbe, 0x6c, 0x1e, 0x95, 0xc2,
        0x86, 0x49, 0x93, 0xb8, 0x85, 0x63, 0x70, 0x58, 0x7b, 0x63, 0x5d, 0x35,
        0x73, 0x4b, 0x7c, 0x73, 0x6c, 0x68, 0x72, 0x51, 0x77, 0x76, 0x78, 0x6d,
        0x70, 0x6d, 0x75, 0x47, 0x6c, 0x56, 0x82, 0x69, 0x7f, 0x6e, 0x60, 0x59,
        0x8d, 0x75, 0x5e, 0x6e, 0x75, 0x7a, 0x40, 0x49, 0x92, 0x64, 0x53, 0x64,
        0x6f, 0x85, 0x52, 0x7d, 0x7e, 0x9b, 0xa6, 0x5e, 0x6c, 0x5c, 0x9d, 0x73,
        0x58, 0x39, 0xaa, 0x8e, 0x4c, 0x52, 0xad, 0x7e, 0x6a, 0x56, 0xa6, 0xac,
        0x5d, 0x2d, 0x8f, 0xac, 0x66, 0x3f, 0xa0, 0xc0, 0x8a, 0x39, 0x8f, 0xb3,
        0x7e, 0x4c, 0x75, 0x7e, 0x7c, 0x62, 0x57, 0x2f, 0x87, 0x46, 0x71, 0x5b,
        0x71, 0x58, 0x76, 0x45, 0x74, 0x8d, 0x7d, 0x62, 0x69, 0x76, 0x7d, 0x3f,
        0x61, 0x43, 0x80, 0x4c, 0x6c, 0x54, 0x67, 0x6c, 0x89, 0x7a, 0x6d, 0x4d,
        0x78, 0x61, 0x5b, 0x36, 0x7c, 0x84, 0x59, 0x48, 0x7e, 0x92, 0x82, 0x6b,
        0x8c, 0x92, 0xa4, 0x52, 0x5d, 0x61, 0xb5, 0x7f, 0x4d, 0x3c, 0xb1, 0xa6,
        0x5a, 0x57, 0xa0, 0x77, 0x72, 0x4b, 0xa5, 0x9e, 0x57, 0x35, 0xa1, 0xab,
        0x5e, 0x3d, 0x94, 0xcc, 0x81, 0x36, 0x9e, 0xba, 0x8f, 0x58, 0x7c, 0x70,
        0x87, 0x79, 0x6a, 0x22, 0x80, 0x69, 0x74, 0x5a, 0x62, 0x70, 0x7e, 0x4f,
        0x65, 0x72, 0x88, 0x5d, 0x6a, 0x5d, 0x65, 0x51, 0x71, 0x4d, 0x79, 0x5c,
        0x77, 0x66, 0x6e, 0x50, 0x89, 0x79, 0x70, 0x69, 0x74, 0x71, 0x5d, 0x73,
        0x90, 0x6e, 0x4d, 0x55, 0x5c, 0x90, 0x49, 0x7f, 0x80, 0x93, 0xa5, 0x5c,
        0x66, 0x6a, 0xb0, 0x6d, 0x58, 0x32, 0xac, 0xac, 0x60, 0x72, 0xbc, 0x8b,
        0x5f, 0x5d, 0x9c, 0x9e, 0x5f, 0x1c, 0xb0, 0xb9, 0x60, 0x10, 0xae, 0xd8,
        0x8c, 0x35, 0x9b, 0xba, 0x8a, 0x62, 0x7f, 0x7b, 0x86, 0x58, 0x60, 0x42,
        0x6a, 0x4e, 0x70, 0x64, 0x6c, 0x63, 0x71, 0x63, 0x64, 0x72, 0x7f, 0x53,
        0x63, 0x51, 0x77, 0x69, 0x6a, 0x56, 0x7c, 0x5a, 0x7a, 0x75, 0x76, 0x4f,
        0x8b, 0x6e, 0x69, 0x64, 0x87, 0x5b, 0x55, 0x53, 0x69, 0x6d, 0x54, 0x51,
        0x54, 0x72, 0x77, 0x63, 0x8e, 0xaf, 0x7c, 0x5d, 0x70, 0x6f, 0x96, 0x6a,
        0x2a, 0x36, 0xbd, 0xb2, 0x6b, 0x63, 0x9d, 0x7f, 0x77, 0x4d, 0x92, 0xa3,
        0x43, 0x2f, 0x96, 0xac, 0x62, 0x1c, 0xba, 0xcf, 0x7f, 0x51, 0xa9, 0xba,
        0x7b, 0x7d, 0x77, 0x6b, 0x7c, 0x6b, 0x63, 0x40, 0x70, 0x6c, 0x6c, 0x55,
        0x6b, 0x6f, 0x61, 0x4f, 0x57, 0x7e, 0x85, 0x61, 0x67, 0x6b, 0x86, 0x5f,
        0x77, 0x58, 0x7a, 0x61, 0x75, 0x81, 0x57, 0x64, 0x7a, 0x65, 0x4e, 0x65,
        0x78, 0x65, 0x6e, 0x6c, 0x93, 0x9c, 0x55, 0x5c, 0x51, 0x7a, 0x5c, 0x82,
        0x8a, 0x92, 0x8e, 0x56, 0x54, 0x7a, 0xae, 0x8e, 0x3e, 0x46, 0xa8, 0xae,
        0x4e, 0x65, 0xa8, 0x7f, 0x72, 0x6c, 0xa1, 0x97, 0x4f, 0x2a, 0x9b, 0xb0,
        0x3e, 0x3f, 0xb9, 0xcb, 0x85, 0x57, 0x9e, 0xb2, 0x95, 0x5f, 0x67, 0x6f,
        0x79, 0x71, 0x54, 0x4d, 0x74, 0x7a, 0x67, 0x72, 0x5b, 0x7b, 0x82, 0x64,
        0x5f, 0x7c, 0x7a, 0x50, 0x5a, 0x76, 0x93, 0x80, 0x5f, 0x6b, 0x77, 0x66,
        0x71, 0x60, 0x61, 0x74, 0x8b, 0x5d, 0x48, 0x54, 0x89, 0x70, 0x6d, 0x5e,
        0x7d, 0x61, 0x4a, 0x4b, 0x6b, 0x71, 0x53, 0x61, 0x90, 0xa1, 0x7d, 0x4f,
        0x63, 0x62, 0xa2, 0x7a, 0x36, 0x5f, 0xaa, 0xb1, 0x53, 0x61, 0xa6, 0x9c,
        0x5b, 0x57, 0x94, 0xa3, 0x55, 0x3e, 0xb4, 0xb8, 0x49, 0x3d, 0xb4, 0xd3,
        0x74, 0x57, 0xaa, 0xa6, 0x89, 0x76, 0x66, 0x7c, 0x7b, 0x8f, 0x89, 0x42,
        0x76, 0x5d, 0x7e, 0x63, 0x5c, 0x7b, 0x61, 0x63, 0x65, 0x5b, 0x8c, 0x65,
        0x64, 0x63, 0x89, 0x7b, 0x83, 0x5b, 0x83, 0x7c, 0x7e, 0x57, 0x77, 0x66,
        0x6d, 0x49, 0x6f, 0x68, 0x6e, 0x76, 0x77, 0x5f, 0x79, 0x68, 0x49, 0x39,
        0x54, 0x84, 0x75, 0x56, 0x8a, 0xa5, 0x7b, 0x3c, 0x57, 0x71, 0xa4, 0x7b,
        0x34, 0x51, 0x9c, 0xa1, 0x48, 0x68, 0xa2, 0x89, 0x79, 0x78, 0x9c, 0xae,
        0x4f, 0x34, 0xa4, 0xad, 0x54, 0x55, 0xa6, 0xb4, 0x83, 0x54, 0x8b, 0xab,
        0x83, 0x76, 0x81, 0x6a, 0x74, 0x79, 0x68, 0x66, 0x72, 0x66, 0x75, 0x66,
        0x5e, 0x66, 0x7b, 0x6b, 0x51, 0x69, 0x8f, 0x50, 0x54, 0x72, 0x8c, 0x71,
        0x7a, 0x5c, 0x85, 0x94, 0x7e, 0x6c, 0x62, 0x52, 0x7a, 0x7c, 0x65, 0x81,
        0x81, 0x76, 0x38, 0x6b, 0x6f, 0x72, 0x37, 0x48, 0x4d, 0x91, 0x6a, 0x88,
        0x85, 0x9f, 0x73, 0x49, 0x51, 0x8e, 0x9e, 0x72, 0x31, 0x4a, 0xa1, 0x9d,
        0x60, 0x79, 0xaa, 0x80, 0x60, 0x56, 0xbe, 0x99, 0x50, 0x45, 0xa9, 0xac,
        0x5d, 0x45, 0xa4, 0xaa, 0x84, 0x67, 0x9a, 0x9f, 0x9c, 0x7d, 0x68, 0x68,
        0x88, 0x7f, 0x6b, 0x54, 0x81, 0x68, 0x6c, 0x7b, 0x4e, 0x6a, 0x5e, 0x63,
        0x6e, 0x5b, 0x81, 0x5b, 0x75, 0x78, 0x8e, 0x92, 0x73, 0x53, 0x76, 0x77,
        0x87, 0x62, 0x76, 0x6f, 0x7f, 0x5f, 0x52, 0x82, 0x6b, 0x7c, 0x4a, 0x79,
        0x81, 0x74, 0x59, 0x59, 0x5c, 0x84, 0x51, 0x81, 0x87, 0xab, 0x7c, 0x40,
        0x48, 0x74, 0xc1, 0x89, 0x38, 0x60, 0xb7, 0xa2, 0x5d, 0x60, 0x87, 0x76,
        0x64, 0x63, 0xa7, 0x9a, 0x46, 0x54, 0x97, 0xb3, 0x4e, 0x6b, 0x86, 0xad,
        0x79, 0x3c, 0x71, 0x8f, 0x9f, 0x86, 0x6a, 0x60, 0x74, 0x66, 0x70, 0x65,
        0x8e, 0x67, 0x4f, 0x68, 0x63, 0x6c, 0x88, 0x64, 0x68, 0x88, 0x7e, 0x6d,
        0x72, 0x64, 0x61, 0x7b, 0x78, 0x51, 0x61, 0x71, 0x85, 0x60, 0x5e, 0x64,
        0x7f, 0x81, 0x6e, 0x79, 0x8d, 0x66, 0x54, 0x6f, 0x56, 0x74, 0x39, 0x5f,
        0x3e, 0x75, 0x4a, 0x5a, 0x74, 0xb9, 0x90, 0x3c, 0x4f, 0x67, 0xb9, 0x8c,
        0x48, 0x77, 0x98, 0xa3, 0x5a, 0x75, 0x93, 0x73, 0x49, 0x62, 0x9e, 0x83,
        0x22, 0x4a, 0xb9, 0xbe, 0x5a, 0x67, 0x87, 0xba, 0x7c, 0x72, 0x7e, 0x90,
        0x8d, 0x60, 0x4e, 0x65, 0x8c, 0x7c, 0x83, 0x63, 0x79, 0x62, 0x81, 0x4b,
        0x65, 0x76, 0x73, 0x64, 0x73, 0x5e, 0x8e, 0x61, 0x68, 0x85, 0x8b, 0x87,
        0x80, 0x67, 0x5f, 0x7f, 0x74, 0x5d, 0x66, 0x5d, 0x80, 0x7d, 0x5b, 0x7b,
        0x75, 0x58, 0x74, 0x6e, 0x7a, 0x54, 0x27, 0x4f, 0x3c, 0x67, 0x79, 0x67,
        0x6c, 0x9c, 0x7b, 0x44, 0x6b, 0x91, 0xa6, 0x72, 0x3d, 0x83, 0x70, 0xad,
        0x68, 0x7e, 0x7a, 0x94, 0x6a, 0x75, 0x66, 0xa6, 0x43, 0x74, 0x77, 0x9c,
        0x53, 0x5d, 0x93, 0x7d, 0x77, 0x5f, 0x4a, 0x76, 0x86, 0x7d, 0x50, 0x66,
        0xa1, 0x70, 0x75, 0x71, 0x7e, 0x60, 0x69, 0x75, 0x5f, 0x62, 0x93, 0x70,
        0x69, 0x63, 0x7d, 0x50, 0x6e, 0x85, 0x6a, 0x87, 0x5f, 0x78, 0x75, 0x5c,
        0x78, 0x65, 0x7d, 0x62, 0x8b, 0x6a, 0x50, 0x74, 0x7d, 0x5d, 0x39, 0x61,
        0x94, 0x8c, 0x5b, 0x44, 0x00, 0x00, 0x0e, 0x00, 0x18, 0x00, 0x08, 0x00,
        0x07, 0x00, 0x0c, 0x00, 0x10, 0x00, 0x14, 0x00, 0x0e, 0x00, 0x00, 0x00,
        0x00, 0x00, 0x00, 0x02, 0x10, 0x00, 0x00, 0x00, 0x01, 0x00, 0x00, 0x00,
        0x10, 0x00, 0x00, 0x00, 0x28, 0x00, 0x00, 0x00, 0x01, 0x00, 0x00, 0x00,
        0x04, 0x00, 0x00, 0x00, 0x0b, 0x00, 0x00, 0x00, 0x4d, 0x61, 0x74, 0x4d,
        0x75, 0x6c, 0x5f, 0x62, 0x69, 0x61, 0x73, 0x00, 0x0c, 0x00, 0x0c, 0x00,
        0x00, 0x00, 0x00, 0x00, 0x04, 0x00, 0x08, 0x00, 0x0c, 0x00, 0x00, 0x00,
        0x18, 0x00, 0x00, 0x00, 0x04, 0x00, 0x00, 0x00, 0x01, 0x00, 0x00, 0x00,
        0x00, 0x00, 0x00, 0x00, 0x00, 0x00, 0x00, 0x00, 0x00, 0x00, 0x00, 0x00,
        0x01, 0x00, 0x00, 0x00, 0xfc, 0xea, 0xb8, 0x37, 0x10, 0x00, 0x00, 0x00,
        0xa7, 0x01, 0x00, 0x00, 0xc8, 0xfd, 0xff, 0xff, 0xbf, 0xfd, 0xff, 0xff,
        0x5c, 0x02, 0x00, 0x00, 0x03, 0x00, 0x00, 0x00, 0xb4, 0x00, 0x00, 0x00,
        0x5c, 0x00, 0x00, 0x00, 0x04, 0x00, 0x00, 0x00, 0xc0, 0xff, 0xff, 0xff,
        0x00, 0x00, 0x00, 0x09, 0x02, 0x00, 0x00, 0x00, 0x10, 0x00, 0x00, 0x00,
        0x14, 0x00, 0x00, 0x00, 0x24, 0x00, 0x00, 0x00, 0x14, 0x00, 0x00, 0x00,
        0x01, 0x00, 0x00, 0x00, 0x04, 0x00, 0x00, 0x00, 0x01, 0x00, 0x00, 0x00,
        0x05, 0x00, 0x00, 0x00, 0x00, 0x00, 0x00, 0x00, 0x00, 0x00, 0x06, 0x00,
        0x08, 0x00, 0x04, 0x00, 0x06, 0x00, 0x00, 0x00, 0x00, 0x00, 0x80, 0x3f,
        0x14, 0x00, 0x1c, 0x00, 0x08, 0x00, 0x0c, 0x00, 0x10, 0x00, 0x07, 0x00,
        0x14, 0x00, 0x00, 0x00, 0x00, 0x00, 0x18, 0x00, 0x14, 0x00, 0x00, 0x00,
        0x00, 0x00, 0x00, 0x08, 0x01, 0x00, 0x00, 0x00, 0x10, 0x00, 0x00, 0x00,
        0x1c, 0x00, 0x00, 0x00, 0x28, 0x00, 0x00, 0x00, 0x1c, 0x00, 0x00, 0x00,
        0x03, 0x00, 0x00, 0x00, 0x02, 0x00, 0x00, 0x00, 0x07, 0x00, 0x00, 0x00,
        0x01, 0x00, 0x00, 0x00, 0x01, 0x00, 0x00, 0x00, 0x04, 0x00, 0x00, 0x00,
        0x00, 0x00, 0x00, 0x00, 0x04, 0x00, 0x04, 0x00, 0x04, 0x00, 0x00, 0x00,
        0x14, 0x00, 0x18, 0x00, 0x00, 0x00, 0x08, 0x00, 0x0c, 0x00, 0x07, 0x00,
        0x10, 0x00, 0x00, 0x00, 0x00, 0x00, 0x14, 0x00, 0x14, 0x00, 0x00, 0x00,
        0x00, 0x00, 0x00, 0x02, 0x10, 0x00, 0x00, 0x00, 0x1c, 0x00, 0x00, 0x00,
        0x30, 0x00, 0x00, 0x00, 0x1c, 0x00, 0x00, 0x00, 0x03, 0x00, 0x00, 0x00,
        0x03, 0x00, 0x00, 0x00, 0x06, 0x00, 0x00, 0x00, 0x00, 0x00, 0x00, 0x00,
        0x01, 0x00, 0x00, 0x00, 0x02, 0x00, 0x00, 0x00, 0x00, 0x00, 0x00, 0x00,
        0x0c, 0x00, 0x10, 0x00, 0x00, 0x00, 0x04, 0x00, 0x08, 0x00, 0x0c, 0x00,
        0x0c, 0x00, 0x00, 0x00, 0x02, 0x00, 0x00, 0x00, 0x02, 0x00, 0x00, 0x00,
        0x04, 0x00, 0x00, 0x00, 0x03, 0x00, 0x00, 0x00, 0x24, 0x00, 0x00, 0x00,
        0x14, 0x00, 0x00, 0x00, 0x04, 0x00, 0x00, 0x00, 0xfa, 0xff, 0xff, 0xff,
        0x00, 0x19, 0x06, 0x00, 0x06, 0x00, 0x05, 0x00, 0x06, 0x00, 0x00, 0x00,
        0x00, 0x09, 0x06, 0x00, 0x08, 0x00, 0x07, 0x00, 0x06, 0x00, 0x00, 0x00,
        0x00, 0x00, 0x00, 0x04
        };
        unsigned int _tmp_converted_model_optInfer_tflite_len = 9712;

